<pad>	0
<s>	0
</s>	0
<unk>	0
回声	-0
甲状	-1
甲状腺	-2
未见	-3
明显	-4
未见明显	-5
0.	-6
扫查	-7
可见	-8
结节	-9
未见明显肿	-10
均匀	-11
cm	-12
×0.	-13
in	-14
2:	-15
淋巴	-16
淋巴结	-17
右叶	-18
双侧	-19
实性	-20
血流	-21
甲状腺左	-22
信号	-23
血流信号	-24
不均匀	-25
DF	-26
DFI	-27
CDFI	-28
——	-29
多发	-30
考虑	-31
规则	-32
回声不均匀	-33
1.	-34
未见明显肿物	-35
颈部	-36
▁甲状腺	-37
异常	-38
淋巴结影	-39
最大	-40
未见明显肿大	-41
边界	-42
低回声	-43
大小	-44
内部	-45
ro	-46
▁P	-47
gs	-48
mp	-49
▁F	-50
din	-51
mpt	-52
▁Fin	-53
▁Pro	-54
dings	-55
▁Prompt	-56
▁Findings	-57
颌下	-58
形态	-59
腮腺	-60
异常回声	-61
颌下腺	-62
实性结节	-63
腺扫查	-64
甲状腺左叶	-65
▁甲状腺扫查	-66
内部回声不均匀	-67
涎腺扫查	-68
双侧涎腺扫查	-69
未见明显肿大及	-70
未见明显肿大及异常回声	-71
未见明显肿大及异常回声淋巴结影	-72
腮腺未见明显肿物	-73
颌下腺及	-74
:0.	-75
颌下腺及腮腺未见明显肿物	-76
可见多发	-77
肿物	-78
甲状腺左右叶	-79
可见一	-80
正常	-81
甲状腺右叶	-82
双侧颈部	-83
形状	-84
2.	-85
性甲状腺	-86
性甲状腺肿	-87
结节性甲状腺肿	-88
考虑结节性甲状腺肿	-89
边界清	-90
双侧颈部扫查	-91
形状规则	-92
不清	-93
回声均匀	-94
丰富	-95
叶最大	-96
侧叶最大	-97
未见明显血流信号	-98
×1.	-99
部分	-100
强回声	-101
内血流信号	-102
实性肿物	-103
大小正常	-104
×0.3	-105
钙化	-106
实质	-107
(2	-108
下颈	-109
静脉	-110
未见明显肿物影	-111
低回声区	-112
×0.4	-113
:1.	-114
不规则	-115
囊性	-116
扩张	-117
不丰富	-118
可见强回声	-119
中下	-120
肝内	-121
界清	-122
及结节	-123
×0.2	-124
可见多发实性	-125
结甲	-126
内血流信号不丰富	-127
恶性	-128
术后	-129
显示	-130
边界不清	-131
清晰	-132
除外	-133
气管	-134
待除外	-135
甲状腺左右叶多发	-136
双肾	-137
×0.5	-138
RA	-139
病变	-140
形态规则	-141
DS	-142
RADS	-143
可见多	-144
可见多个	-145
下颈气管	-146
可见少	-147
性病变	-148
左侧叶最大	-149
右侧叶最大	-150
TI	-151
(4	-152
无扩张	-153
管无扩张	-154
结合	-155
显示清晰	-156
淋巴结扫查	-157
典型	-158
不典型	-159
不典型结甲	-160
下颈气管旁	-161
层可见一	-162
可见少许	-163
实质回声	-164
呈低回声	-165
粗糙	-166
未见明显异常	-167
可见少许血流信号	-168
▁甲状腺右叶	-169
检查	-170
甲功	-171
未见明显异常血流信号	-172
桥本	-173
结合甲功	-174
建议	-175
形态大小正常	-176
透声	-177
下极	-178
切除	-179
胆囊	-180
边界不清楚	-181
×0.6	-182
界不清	-183
切除术后	-184
囊实性结节	-185
结合甲功检查	-186
炎性	-187
▁甲状腺左叶	-188
肿大	-189
上腹	-190
余颈部	-191
甲状腺炎	-192
潜在	-193
考虑炎性	-194
桥本氏	-195
良好	-196
桥本氏甲状腺炎	-197
粗糙不均匀	-198
潜在低回声区	-199
建议结合甲功检查	-200
不均	-201
回声不均	-202
肿物及结节	-203
光滑	-204
周围	-205
位于	-206
血管	-207
未见明显肿大淋巴结	-208
占位	-209
动脉	-210
内未见明显肿物影	-211
占位性病变	-212
×0.7	-213
可见多个潜在低回声区	-214
腹膜	-215
腹膜后	-216
囊实性肿物	-217
双颈部	-218
饱满	-219
中部	-220
结构	-221
脾脏	-222
肝脏	-223
胰腺	-224
恶性待除外	-225
腹膜后扫查	-226
双肾扫查	-227
外侧	-228
静脉及	-229
脾扫查	-230
主动脉	-231
瘤体	-232
胰管无扩张	-233
内侧	-234
腹主动脉	-235
结晶	-236
甲状腺左右叶多发结节	-237
腹主动脉周围	-238
壁光滑	-239
未见明显占位性病变	-240
腔静脉及	-241
腔静脉及腹主动脉周围	-242
上腹腔静脉及腹主动脉周围	-243
反射	-244
3.	-245
×0.8	-246
瘤体内血流信号不丰富	-247
多发淋巴结	-248
甲状腺内血流信号	-249
内可见强回声	-250
脾脏大小正常	-251
胰腺显示清晰	-252
结构正常	-253
上中下	-254
×2.	-255
:0.4	-256
中上	-257
欠清	-258
囊性结节	-259
甲状腺左右叶多发肿物及结节	-260
弥漫	-261
可见多发低回声	-262
上极	-263
:0.5	-264
透声良好	-265
甲状腺左右叶可见多发实性	-266
实质回声均匀	-267
欠均匀	-268
:0.3	-269
形态正常	-270
囊实性肿物及结节	-271
伴钙化	-272
平滑	-273
×0.9	-274
较丰富	-275
浅层可见一	-276
:2.	-277
肿大淋巴结	-278
双颈	-279
深层可见一	-280
表面	-281
双肾形态	-282
回声欠均匀	-283
:0.6	-284
可能	-285
双下颈气管旁	-286
可能性	-287
可能性大	-288
表面平滑	-289
胆囊大小	-290
脉管	-291
髂脉管	-292
多发结节	-293
双颈淋巴结扫查	-294
髂脉管区	-295
血管显示清晰	-296
边界欠清	-297
小钙化	-298
实质回声粗糙不均匀	-299
增大	-300
胆囊大小形态正常	-301
双侧颈部淋巴结扫查	-302
囊壁光滑	-303
0.4	-304
可见一大小	-305
×1.0	-306
充盈	-307
不典型结甲待除外	-308
(6	-309
右侧	-310
峡叶	-311
0.5	-312
考虑桥本氏甲状腺炎	-313
盆腔	-314
0.3	-315
弥漫性病变	-316
内可见	-317
:0.7	-318
减低	-319
光点	-320
颈部未见明显肿物	-321
-3	-322
内可见强回声结晶	-323
点状	-324
回声区	-325
部分可见强回声	-326
多发肿大淋巴结	-327
上中下可见多发实性	-328
改变	-329
髓质	-330
内未见明显异常血流信号	-331
肿大淋巴结影	-332
甲状腺内未见明显异常血流信号	-333
0.6	-334
:0.8	-335
呈极	-336
×1.1	-337
左侧	-338
及囊实性结节	-339
肝内胆	-340
可见多发淋巴结影	-341
甲状腺内血流信号较丰富	-342
部分可见少许血流信号	-343
反射区	-344
甲状腺右叶中下	-345
:0.3×0.2	-346
结节未见明显血流信号	-347
囊肿	-348
甲状腺回声不均匀	-349
左叶	-350
囊性无	-351
实质回声减低	-352
腺体	-353
上颈	-354
4.	-355
左下颈气管旁	-356
残叶	-357
--	-358
(2-3	-359
低回声结节	-360
▁颈部未见明显肿物	-361
甲状腺形态大小正常	-362
欠规则	-363
甲状腺右叶切除术后	-364
甲状腺左叶中下	-365
肝内胆管无扩张	-366
下肢	-367
锁上	-368
×1.2	-369
深静脉	-370
中间	-371
实性结节伴钙化	-372
分布	-373
呈极低回声	-374
:0.9	-375
内回声不均匀	-376
▁甲状腺左右叶多发肿物及结节	-377
双下肢	-378
稍丰富	-379
术区	-380
肝内光点	-381
肝内未见明显异常血流信号	-382
血栓	-383
甲状腺内血流信号不丰富	-384
部分内可见强回声结晶	-385
囊性无回声区	-386
甲状腺右叶下极	-387
腮腺及	-388
转移	-389
0.7	-390
甲状腺右叶中部	-391
可见一大小约	-392
未见明显血栓	-393
浅层	-394
分布均匀	-395
部分可见强回声髓质	-396
增强	-397
透声好	-398
包膜	-399
:1.0	-400
甲状腺左叶切除术后	-401
形成	-402
甲状腺左叶中部	-403
术后改变	-404
右下颈气管旁	-405
:0.5×0.3	-406
(3	-407
未见明显血栓形成	-408
甲状腺左叶下极	-409
尚清	-410
:0.4×0.3	-411
×1.3	-412
肝右叶	-413
▁甲状腺左右叶多发结节	-414
腮腺及颌下腺	-415
形态饱满	-416
周边	-417
部分结节	-418
增厚	-419
可见强回声小钙化	-420
×3.	-421
甲状腺左右叶上中下可见多发实性	-422
甲状腺左叶回声均匀	-423
充盈良好	-424
膀胱	-425
0.2	-426
双侧髂脉管区	-427
可疑	-428
可见大小	-429
双侧腮腺及颌下腺	-430
盆腔扫查	-431
子宫	-432
双侧腮腺及颌下腺实质回声均匀	-433
未见明显肿大淋巴结影	-434
:0.2	-435
可见多发低回声肿大淋巴结影	-436
0.8	-437
:3.	-438
考虑术后改变	-439
甲状腺切除术后	-440
不等	-441
:1.1	-442
观察	-443
双下颈气管旁多发淋巴结	-444
复查	-445
双颈部扫查	-446
甲状腺内血流信号稍丰富	-447
×1.4	-448
脂肪	-449
点状强回声	-450
未见明显异常回声	-451
髂脉管区扫查	-452
深层	-453
肝内光点分布均匀	-454
可见多发实性结节	-455
双侧髂脉管区未见明显肿大淋巴结影	-456
包膜完	-457
未见扩张	-458
上腹部	-459
肝脏形态	-460
肝脏形态大小正常	-461
:1.2	-462
近下极	-463
甲状腺右叶中上	-464
甲状腺弥漫性病变	-465
甲状腺左叶中上	-466
▁甲状腺右叶实性结节	-467
左肾	-468
声影	-469
双下肢深静脉	-470
片状	-471
边界欠清楚	-472
▁肝	-473
期复查	-474
mm	-475
甲状腺右叶回声均匀	-476
甲状腺左右叶饱满	-477
右肾	-478
定期复查	-479
腋下	-480
膀胱充盈	-481
低回声反射区	-482
×1.5	-483
:0.6×0.4	-484
▁甲状腺左叶实性结节	-485
左下颈	-486
脂肪肝	-487
)——	-488
:1.3	-489
伴声影	-490
0.9	-491
考虑结甲	-492
皮质	-493
峡部	-494
甲状腺左叶上极	-495
:0.4×0.2	-496
肝内肝	-497
囊壁	-498
肝内肝管无扩张	-499
甲状腺左右叶及	-500
上腹部未见明显肿物	-501
中下颈	-502
转移性	-503
5.	-504
可见大小不等	-505
×1.6	-506
右残叶	-507
甲状腺右叶上极	-508
多发肿物及结节	-509
▁甲状腺右叶实性肿物	-510
后方	-511
界限	-512
左锁上	-513
相当	-514
相当于	-515
可见多发低回声淋巴结影	-516
未见明显扩张	-517
:1.4	-518
肝左叶	-519
内可见多发	-520
门脉	-521
细腻	-522
腹股	-523
腹股沟	-524
门脉未见扩张	-525
回声增强	-526
×4.	-527
1.0	-528
可疑恶性	-529
▁甲状腺左右叶	-530
0.3×0.2	-531
考虑炎性可能性大	-532
颈前	-533
血管显示	-534
边界尚清	-535
▁甲状腺左叶实性肿物	-536
内可见少许血流信号	-537
:0.7×0.4	-538
范围	-539
:1.5	-540
甲状腺扫查	-541
×1.7	-542
包膜完好	-543
内部回声均匀	-544
▁右	-545
弥漫性	-546
甲状腺峡叶	-547
肝脏包膜完好	-548
最大约	-549
双颌下	-550
近上极	-551
液性	-552
结节影	-553
移动	-554
考虑结节性甲状腺肿结节	-555
附件	-556
及囊实性肿物及结节	-557
体位	-558
随体位	-559
血流信号不丰富	-560
未见明显结节影	-561
外侧可见一	-562
前列	-563
0.5×0.3	-564
0.4×0.3	-565
未见明显肿物影像	-566
:0.5×0.4	-567
可见少量	-568
前列腺	-569
附件区	-570
:0.6×0.3	-571
双乳	-572
转移瘤	-573
×1.8	-574
实质回声粗糙	-575
:1.6	-576
呈低回声区	-577
小结节	-578
1.1	-579
片状低回声区	-580
×0.1	-581
轮廓	-582
血流信号充盈良好	-583
▁甲状腺弥漫性病变	-584
甲状腺右叶多发结节	-585
可见多发囊性	-586
甲状腺左残叶	-587
周边可见	-588
:0.2×0.2	-589
双颈部多发肿大淋巴结	-590
双上颈	-591
多发实性肿物	-592
被膜	-593
:4.	-594
附件区未见明显异常回声	-595
甲状腺右叶可见多发实性	-596
可见少量血流信号	-597
宫体	-598
桥本结节	-599
甲状腺左右叶及峡部	-600
可见大小不等钙化	-601
随体位移动	-602
浅层可见一大小	-603
稍增厚	-604
双颈部淋巴结扫查	-605
弥漫性增大	-606
连续	-607
部分内可见	-608
部分边界欠清	-609
请结合甲功检查	-610
内膜	-611
密切	-612
股浅	-613
股总	-614
股总静脉	-615
股深静脉	-616
强回声反射区	-617
肝实质回声均匀	-618
1.2	-619
甲状腺左叶形态大小正常	-620
:0.8×0.5	-621
:1.7	-622
盆腔未见明显肿物	-623
:0.7×0.5	-624
可见点状强回声	-625
皮质稍增厚	-626
胫后	-627
双腋下	-628
点状血流信号	-629
直径	-630
×1.9	-631
▁甲状腺右叶多发结节	-632
样钙化	-633
部分呈低回声	-634
稍增大	-635
胆囊透声良好	-636
范围约	-637
深层可见一大小	-638
中颈	-639
腘静脉	-640
粗大	-641
▁甲状腺右叶实性结节伴钙化	-642
双侧附件区未见明显异常回声	-643
管未见明显扩张	-644
界限清	-645
双侧腹股沟	-646
透声可	-647
股浅静脉	-648
双下肢深静脉未见明显血栓形成	-649
内可见一	-650
肌间	-651
血管瘤	-652
肌间静脉	-653
小腿	-654
右下颈	-655
实性肿物及结节	-656
内侧可见一	-657
双下肢深静脉扫查	-658
组织	-659
多发囊肿	-660
左下颈气管旁多发淋巴结	-661
融合	-662
位于肝右叶	-663
部分内	-664
),	-665
▁左	-666
:1.8	-667
左右叶	-668
强回声钙化	-669
考虑结甲可能性大	-670
甲状腺左叶多发结节	-671
内可见多发潜在低回声区	-672
甲状腺右叶近下极	-673
形状欠规则	-674
可见一个	-675
宫壁	-676
×2.0	-677
内未见明显血流信号	-678
融合状	-679
1.3	-680
界尚清	-681
甲状腺左叶可见多发实性	-682
▁甲状腺左叶多发结节	-683
等回声	-684
稍饱满	-685
宫内膜	-686
▁甲状腺回声不均匀	-687
0.6×0.4	-688
甲状腺左右叶实质回声粗糙不均匀	-689
后改变	-690
考虑转移瘤	-691
胆囊多发	-692
子宫前	-693
考虑血管瘤	-694
肾脏	-695
甲状腺左右叶上中下	-696
▁甲状腺左叶实性结节伴钙化	-697
及囊性结节	-698
部分可见	-699
膀胱充盈好	-700
子宫前位	-701
部分内可见少量血流信号	-702
不清晰	-703
部分结节内可见少许血流信号	-704
上颈颈前	-705
软组织	-706
甲状腺右叶形态大小正常	-707
欠清晰	-708
弱回声	-709
可见沙	-710
1.4	-711
可见强回声反射	-712
:1.9	-713
门静脉	-714
偏外侧	-715
肝脏稍增大	-716
考虑恶性	-717
血管显示不清晰	-718
息肉	-719
增生	-720
部分结节可见少许血流信号	-721
界欠清	-722
可见多个低回声	-723
部分内可见强回声	-724
血流充盈良好	-725
×2.1	-726
密切观察	-727
粗大钙化	-728
中间可见一	-729
小腿肌间静脉	-730
结节可见少许血流信号	-731
甲状腺右叶实性结节	-732
粒样钙化	-733
1.5	-734
较前	-735
未见明显肿大及异常回声淋巴结	-736
前后	-737
:2.0	-738
考虑结节性甲状腺肿可能性大	-739
CA	-740
甲状腺左叶近下极	-741
前后径	-742
轻度	-743
下颈气管周围	-744
:0.8×0.4	-745
右锁上	-746
双侧颌下腺	-747
甲状腺左叶实性结节	-748
可见多发实性肿物及结节	-749
包膜完整	-750
形态轮廓	-751
肝实质回声	-752
不随体位移动	-753
1.6	-754
可见一囊性无回声区	-755
×2.2	-756
方向	-757
甲状腺右残叶	-758
颈部多发肿大淋巴结	-759
及峡叶	-760
术区未见明显异常回声	-761
:0.9×0.5	-762
右下颈气管旁多发淋巴结	-763
甲状腺左右叶及峡部弥漫性增大	-764
皮下	-765
不伴声影	-766
较大	-767
×5.	-768
位于肝左叶	-769
左乳	-770
抽吸	-771
、6	-772
及结构正常	-773
偏左	-774
方向正常	-775
血流方向正常	-776
钙化灶	-777
:0.9×0.6	-778
后方回声增强	-779
、4	-780
:2.1	-781
0.5×0.4	-782
尚规则	-783
可见沙粒样钙化	-784
×0.40	-785
右乳	-786
×0.37	-787
主干	-788
可见多发囊性结节	-789
×0.35	-790
可见大小为	-791
上中下颈	-792
中上颈	-793
0.4×0.2	-794
甲状腺实质回声粗糙不均匀	-795
1.7	-796
6.	-797
结石	-798
血流信号较丰富	-799
部分可见强回声结晶	-800
(-	-801
0.6×0.3	-802
(-)	-803
胫后静脉	-804
实质光点	-805
×0.32	-806
甲状腺右叶增大	-807
可见多个低回声反射区	-808
可见点状血流信号	-809
双下肢股总静脉	-810
欠光滑	-811
×0.33	-812
甲状腺左叶下极可见一	-813
×0.42	-814
×0.41	-815
×2.3	-816
×0.36	-817
宫内膜厚	-818
肝内可见多个	-819
乳腺扫查	-820
×0.39	-821
偏内侧	-822
:0.6×0.5	-823
中层可见一	-824
×0.44	-825
肝内多发囊肿	-826
0.7×0.4	-827
形态轮廓清晰	-828
大小不等	-829
×0.34	-830
炎症	-831
2、	-832
回声稍	-833
影像	-834
可见多发肿大淋巴结影	-835
甲状腺右叶下极可见一	-836
双乳腺体	-837
:0.8×0.6	-838
×0.38	-839
1.8	-840
呈融合状	-841
颏下	-842
可见多发低回声结节	-843
皮质增厚	-844
强回声小钙化	-845
:2.2	-846
中强回声反射区	-847
偏右	-848
×0.43	-849
×0.31	-850
液性区	-851
性质	-852
×0.30	-853
:5.	-854
治疗	-855
甲状腺左叶增大	-856
考虑转移性	-857
×0.45	-858
两个	-859
×2.4	-860
0.2×0.2	-861
可见多发实性及囊实性结节	-862
旁腺	-863
来自	-864
×0.46	-865
同性质	-866
大小约	-867
低回声实性肿物	-868
双上颈可见多发低回声肿大淋巴结影	-869
×0.47	-870
积液	-871
分别	-872
输尿	-873
主胰管无扩张	-874
穿刺	-875
左室	-876
肝内血管	-877
肾盂	-878
×0.48	-879
近峡叶	-880
×0.28	-881
双侧乳腺扫查	-882
状血流信号	-883
系统	-884
回声减低	-885
:2.3	-886
欠佳	-887
集合	-888
纤维	-889
集合系统	-890
低回声实性结节	-891
(-)。	-892
1.9	-893
×0.29	-894
甲状腺右叶近上极	-895
胆囊壁	-896
较丰富血流信号	-897
吸收	-898
×0.49	-899
囊性回声	-900
右颈部	-901
呈极低回声区	-902
血管显示欠清晰	-903
2-3	-904
扁平	-905
甲状腺左叶近上极	-906
×2.5	-907
患者	-908
3、4	-909
左侧腮腺	-910
▁颈部	-911
甲状旁腺	-912
排列	-913
管壁光滑	-914
外侧可见一大小约	-915
×0.50	-916
多发实性结节	-917
整齐	-918
集合系统排列	-919
光整	-920
集合系统排列整齐	-921
右侧腮腺	-922
以前后径	-923
管状	-924
甲状腺左右叶及峡叶	-925
2.0	-926
右肾形态	-927
大小分别	-928
管状结构	-929
:0.3×0.3	-930
双锁上	-931
:1.0×0.6	-932
可见强回声钙化	-933
▁甲状腺右叶实性肿物伴钙化	-934
×0.27	-935
请结合	-936
较明显	-937
肾盂输尿	-938
宫壁回声均匀	-939
肝内可见多个囊性无回声区	-940
超声	-941
囊性及囊实性结节	-942
×0.51	-943
×0.52	-944
×0.26	-945
:2.4	-946
胆囊形态大小正常	-947
甲状腺左叶上中下	-948
变化	-949
门静脉主干	-950
以前后径较明显	-951
实质呈低回声	-952
甲状腺左叶回声欠均匀	-953
后壁	-954
被膜平滑	-955
×0.53	-956
考虑腺	-957
▁甲状腺左右叶多发	-958
肝内光点回声增强	-959
右上颈	-960
囊壁欠光滑	-961
低回声晕	-962
肾脏未见明显肿物影	-963
不光滑	-964
可见多发低回声淋巴结	-965
肝脏形态稍饱满	-966
内侧可见一大小约	-967
左颈部	-968
尖瓣	-969
可见两个	-970
▁颈部扫查	-971
×0.54	-972
实质光点分布均匀	-973
中等回声	-974
×2.6	-975
延续	-976
右叶多发	-977
甲状腺右叶中下可见一	-978
性好	-979
甲状腺左右叶可见多发实性结节	-980
延续性好	-981
厚度	-982
壁光整	-983
▁甲状腺左叶实性肿物伴钙化	-984
(5	-985
胆囊多发息肉	-986
2.1	-987
×0.55	-988
部位	-989
▁甲状腺峡叶	-990
局部	-991
双侧腋下	-992
最大直径	-993
低回声淋巴结影	-994
:1	-995
强回声反射	-996
回声粗糙	-997
右侧最大	-998
左肾形态	-999
膀胱充盈良好	-1000
左上颈	-1001
:2.5	-1002
可疑转移性	-1003
形状不规则	-1004
光团	-1005
左侧最大	-1006
结节内未见明显血流信号	-1007
×0.25	-1008
大小分别为	-1009
囊性肿物	-1010
可见片状低回声区	-1011
×0.56	-1012
显示不清	-1013
实性肿物伴钙化	-1014
同性质结节	-1015
0.7×0.5	-1016
囊实性	-1017
×0.57	-1018
边界尚清楚	-1019
双发	-1020
BI	-1021
中间部位	-1022
类肿物	-1023
可见片状	-1024
下方	-1025
双腋下扫查	-1026
治疗后改变	-1027
甲状腺实质回声减低	-1028
×0.24	-1029
大小不等钙化	-1030
甲状腺左叶中下可见一	-1031
位于肝内可见多个囊性无回声区	-1032
边界清楚	-1033
甲状腺左右叶可见多发囊性	-1034
甲状腺左右叶实质回声减低	-1035
▁甲状腺左右叶结节	-1036
1、	-1037
:2.6	-1038
×2.7	-1039
:1.0×0.7	-1040
膀胱充盈欠佳	-1041
导管	-1042
吸收后改变	-1043
及结晶	-1044
实性低回声区	-1045
腔内	-1046
2.2	-1047
:0.7×0.3	-1048
左右	-1049
低弱回声	-1050
淋巴类肿物	-1051
内可见强回声反射	-1052
点状钙化	-1053
×0.58	-1054
▁甲状腺右叶下极	-1055
位于左肾	-1056
肝内管状结构	-1057
无明显	-1058
右叶中下	-1059
内可见点状强回声	-1060
×2.8	-1061
符合	-1062
甲状腺右叶回声欠均匀	-1063
:1.0×0.5	-1064
条索	-1065
0.8×0.5	-1066
肌瘤	-1067
×0.59	-1068
附壁	-1069
肝内胆管未见明显扩张	-1070
×0.60	-1071
门静脉主干未见明显扩张	-1072
及结构正常未见明显占位性病变	-1073
条索状	-1074
右中颈	-1075
可见多发囊性无回声区	-1076
双侧股总静脉	-1077
甲状腺左右叶结节	-1078
可见强回声髓质	-1079
上中下可见多发实性及囊实性结节	-1080
腺体中间可见一	-1081
▁甲状腺右叶中下	-1082
:2.7	-1083
回声尚	-1084
▁双颈部多发肿大淋巴结	-1085
回声稍增强	-1086
甲状腺左右叶切除术后	-1087
缩小	-1088
胫后静脉及	-1089
肝左	-1090
位于右肾	-1091
:0.9×0.7	-1092
丰富血流信号	-1093
双侧腹股沟扫查	-1094
灌注	-1095
血流灌注	-1096
血流灌注良好	-1097
强回声光团	-1098
胰腺形态大小正常	-1099
合并	-1100
甲状腺右叶中部可见一	-1101
内部回声欠均匀	-1102
峡叶最大	-1103
弱回声区	-1104
×0.61	-1105
左叶多发	-1106
建议结合	-1107
右颌下	-1108
脾脏形态大小正常	-1109
甲状腺左叶中部可见一	-1110
气管旁	-1111
点线	-1112
左中下颈	-1113
中间可见一大小约	-1114
:0.7×0.6	-1115
2.3	-1116
肾脏血流灌注良好	-1117
:0.5×0.2	-1118
囊壁可见多个	-1119
:1.1×0.9	-1120
探及	-1121
×0.62	-1122
0.8×0.4	-1123
低回声淋巴结	-1124
可见多发强回声小钙化	-1125
术区回声不均匀	-1126
管未见扩张	-1127
×0.23	-1128
囊性无回声	-1129
中部实性结节	-1130
建议结合甲功	-1131
×0.64	-1132
间隔	-1133
周边血流信号	-1134
静脉血流充盈良好	-1135
低回声晕环	-1136
考虑来自	-1137
位置	-1138
0.6×0.5	-1139
肾盂输尿管未见明显扩张	-1140
×2.9	-1141
周边及	-1142
,;	-1143
可见大小不等强回声钙化	-1144
回声尚均匀	-1145
脾动	-1146
考虑腺瘤	-1147
左颈	-1148
点线状血流信号	-1149
深面	-1150
甲状腺左叶上极可见一	-1151
甲状腺炎症	-1152
:0.9×0.4	-1153
周边及内部	-1154
▁左下颈	-1155
▁甲状腺左叶下极	-1156
:1.2×1.0	-1157
左肾囊肿	-1158
:2.8	-1159
肝内血管血流充盈良好	-1160
双侧腮腺未见明显肿物	-1161
膀胱充盈差	-1162
腮腺及双侧颌下腺	-1163
宫颈	-1164
双下肢胫后静脉	-1165
各可见一	-1166
甲状腺右叶可见多发实性结节	-1167
左中颈	-1168
2.4	-1169
×0.63	-1170
稍丰富血流信号	-1171
甲状腺峡叶偏左	-1172
×3.0	-1173
不明显	-1174
腺体回声均匀	-1175
中间部位可见一	-1176
散在	-1177
甲状腺右叶上中下	-1178
▁左锁上	-1179
回声减低区	-1180
甲状腺饱满	-1181
功能	-1182
▁肝左叶	-1183
肝内光点回声稍增强	-1184
▁脂肪肝	-1185
×0.66	-1186
不厚	-1187
▁甲状腺左残叶	-1188
外上	-1189
考虑甲状腺炎症	-1190
强回声反射区不伴声影	-1191
局限	-1192
×0.65	-1193
右颈	-1194
0.3×0.3	-1195
×0.22	-1196
右肾囊肿	-1197
:2.9	-1198
断端	-1199
部分形态饱满	-1200
扁平状	-1201
:1.0×0.8	-1202
部分内可见结晶	-1203
右中下颈	-1204
混合	-1205
实质回声稍	-1206
=3	-1207
完整	-1208
可见较丰富血流信号	-1209
:1.1×1.0	-1210
临床	-1211
甲状腺右叶上极可见一	-1212
部分呈融合状	-1213
甲状腺峡叶偏右	-1214
流速	-1215
甲状腺左右叶增大	-1216
甲状腺左叶回声不均匀	-1217
左残叶	-1218
中等回声反射区	-1219
甲状腺右叶回声不均匀	-1220
前列腺大小正常	-1221
胆囊息肉	-1222
内血流信号较丰富	-1223
可见小钙化	-1224
肝右叶囊肿	-1225
颈部淋巴结扫查	-1226
活检	-1227
:3.0	-1228
左颌下	-1229
甲状腺右叶可见一	-1230
皮下软组织	-1231
2.5	-1232
下颈气管周围多发淋巴结	-1233
未见钙化	-1234
肝内管状结构清晰	-1235
×0.67	-1236
室间隔	-1237
×3.1	-1238
含液性	-1239
甲状腺左叶可见一	-1240
囊壁可见多个强回声反射区不伴声影	-1241
双肾形态大小正常	-1242
▁甲状腺右叶多发肿物及结节	-1243
胆囊壁未见明显异常血流信号	-1244
肝右叶占位性病变	-1245
×0.68	-1246
:1.1×0.8	-1247
下颈气管前	-1248
▁甲状腺右残叶	-1249
结节融合状	-1250
回声粗糙不均匀	-1251
▁甲状腺左叶中下	-1252
腘静脉血流信号充盈良好	-1253
中强回声	-1254
胆囊多发结石	-1255
术区未见明显异常	-1256
甲状腺左右叶中下	-1257
×1.1×0.8	-1258
×3.2	-1259
舒张	-1260
:6.	-1261
条形	-1262
7.	-1263
3、4、6	-1264
:1.2×0.9	-1265
可见多个低回声肿大淋巴结影	-1266
多发占位性病变	-1267
峰值	-1268
多发囊性结节	-1269
峰值流速	-1270
胆囊内部	-1271
中等回声反射区不伴声影	-1272
较前未见明显	-1273
腺体中间	-1274
胆囊内部透声可	-1275
转移性待除外	-1276
×0.21	-1277
低弱回声区	-1278
0.1	-1279
呈结节融合状	-1280
▁甲状腺左叶弥漫性病变	-1281
×0.69	-1282
管囊肿	-1283
暗区	-1284
颈内	-1285
反流	-1286
:3.1	-1287
:0.4×0.4	-1288
双侧腹股沟未见明显肿大淋巴结	-1289
含液性肿物	-1290
内可见强回声小钙化	-1291
关系	-1292
:0.2×0.1	-1293
盆腔未见	-1294
气管前	-1295
盆腔未见子宫	-1296
无明显包膜	-1297
腘静脉管壁光滑	-1298
关系密切	-1299
▁甲状腺左右叶肿物及结节	-1300
(1	-1301
甲状腺左叶中上可见一	-1302
阴道	-1303
液性暗区	-1304
0.7×0.3	-1305
近峡部	-1306
甲状腺左叶可见多发实性结节	-1307
×0.71	-1308
11	-1309
前列腺增生	-1310
状钙化	-1311
0.9×0.5	-1312
引导	-1313
超声引导	-1314
×0.70	-1315
样血流信号	-1316
腹腔	-1317
:3.2	-1318
2.6	-1319
肌壁	-1320
较前未见明显变化	-1321
肝实质回声增强	-1322
超声引导下	-1323
盆腔未见子宫影像	-1324
成分	-1325
中层	-1326
胆囊壁光滑	-1327
未探及	-1328
密集	-1329
衰减	-1330
血流信号稍丰富	-1331
阴道断端	-1332
甲状腺右叶中上可见一	-1333
条形血流信号	-1334
缺如	-1335
甲状舌	-1336
22	-1337
×3.3	-1338
位于左侧	-1339
▁甲状腺左右叶实性结节	-1340
:1.3×1.0	-1341
强回声光团伴声影	-1342
×0.72	-1343
及肿物	-1344
偏外侧可见一	-1345
肿物内未见明显血流信号	-1346
上方	-1347
及右叶	-1348
实质回声欠均匀	-1349
内径	-1350
中上实性结节	-1351
甲状腺右叶多发肿物及结节	-1352
部分切除术后	-1353
胆总	-1354
细密	-1355
▁肝左叶占位性病变	-1356
可见强回声结晶	-1357
▁右下颈	-1358
甲状腺右叶术后	-1359
近峡叶可见一	-1360
实性低回声结节	-1361
Ca	-1362
双腹股沟	-1363
肝左叶囊肿	-1364
考虑桥本结节	-1365
混合瘤	-1366
可见多发低回声区	-1367
结节内可见少许血流信号	-1368
×0.73	-1369
阴道断端光滑	-1370
考虑甲状舌	-1371
形正常	-1372
低弱回声结节	-1373
:0.8×0.7	-1374
条索状低回声区	-1375
×0.75	-1376
纤维化	-1377
峰值流速约	-1378
细胞	-1379
×1.1×0.7	-1380
TC	-1381
胆总管	-1382
:3.3	-1383
囊内	-1384
二尖瓣	-1385
甲状腺内血流信号丰富	-1386
术区软组织	-1387
卵巢	-1388
子宫多发	-1389
血流信号丰富	-1390
▁甲状腺左叶上极	-1391
低回声肿物	-1392
胸骨	-1393
增粗	-1394
最厚	-1395
双侧颌下腺及	-1396
-11	-1397
大小及结构正常	-1398
2.7	-1399
甲状腺左叶饱满	-1400
×6.	-1401
肝实质回声细密	-1402
于上颈颈前	-1403
穿刺活检	-1404
×3.5	-1405
导管未见明显扩张	-1406
及条索状低回声区	-1407
可见多个低回声淋巴结影	-1408
0.8×0.6	-1409
×1.2×0.9	-1410
局限性	-1411
心脏	-1412
×3.4	-1413
PTC	-1414
使用	-1415
左右叶上中下可见多发实性	-1416
超声引导下行	-1417
左室后壁	-1418
外叶	-1419
肝静脉	-1420
囊性肿物及结节	-1421
×0.20	-1422
左室后壁厚度	-1423
子宫多发肌瘤	-1424
多发小结节	-1425
呈中	-1426
细针	-1427
胰腺大小	-1428
×1.1×0.9	-1429
门样血流信号	-1430
容物	-1431
内容物	-1432
甲状腺右叶上中下可见多发实性	-1433
双发实性结节	-1434
部分内可见强回声反射	-1435
▁甲状腺右叶上极	-1436
可见一低回声区	-1437
左右径	-1438
可见多个囊性回声	-1439
左右叶可见多发实性	-1440
右叶最大	-1441
-38	-1442
位于下极	-1443
GPTC	-1444
检测	-1445
▁右锁上	-1446
内抽吸	-1447
×0.74	-1448
内可见强回声钙化	-1449
三尖瓣	-1450
位于肝左	-1451
反应	-1452
双下颈	-1453
×1.2×0.8	-1454
形态不规则	-1455
抽吸内容物	-1456
囊壁可见一	-1457
可见点状强回声反射	-1458
可见多发囊性及囊实性结节	-1459
甲状腺左叶术后	-1460
走形正常	-1461
:1.0×0.9	-1462
甲状腺右叶饱满	-1463
包膜尚	-1464
双腋下淋巴结扫查	-1465
▁甲状腺左叶多发肿物及结节	-1466
甲状腺左右叶及峡叶可见多发实性	-1467
×3.6	-1468
▁甲状腺右叶囊实性肿物	-1469
包膜尚完整	-1470
甲状腺左叶实质回声粗糙不均匀	-1471
0.9×0.6	-1472
内可见大小不等钙化	-1473
考虑甲状舌管囊肿	-1474
▁甲状腺左叶回声不均匀	-1475
未见异常回声	-1476
反应性	-1477
细针抽吸	-1478
甲状腺右叶囊性结节	-1479
内血流信号稍丰富	-1480
:3.4	-1481
▁甲状腺右叶弥漫性病变	-1482
×0.77	-1483
0.4×0.4	-1484
甲状腺左叶囊性结节	-1485
超声引导下行肿物	-1486
尚可	-1487
腔内可见多个	-1488
甲状腺峡叶可见一	-1489
余颈部未见明显肿大淋巴结	-1490
未见明显积液	-1491
前列腺增大	-1492
导管增粗	-1493
颈内静脉	-1494
▁甲状腺左叶囊实性肿物	-1495
分隔	-1496
:3.5	-1497
超声引导下行肿物穿刺	-1498
可见一个中强回声反射区	-1499
动脉瓣	-1500
×0.76	-1501
▁甲状腺右叶结节	-1502
可见周边血流信号	-1503
舌骨	-1504
囊性及囊实性肿物及结节	-1505
小液性区	-1506
可见点状钙化	-1507
可见片状及条索状低回声区	-1508
双乳腺体饱满	-1509
总动脉	-1510
2.8	-1511
:1.1×0.7	-1512
囊性变	-1513
前列腺大小	-1514
▁左下颈气管旁	-1515
甲状腺右叶肿物	-1516
甲状腺左右叶可见多发囊性结节	-1517
×3.7	-1518
×0.78	-1519
小腿肌间静脉未见明显血栓形成	-1520
左叶最大	-1521
可见门样血流信号	-1522
病史	-1523
未见血流信号	-1524
双侧腋下未见明显肿大淋巴结	-1525
开闭	-1526
上颈颈前含液性肿物	-1527
萎缩	-1528
内血流信号丰富	-1529
颈总动脉	-1530
考虑不典型结甲	-1531
肝右	-1532
外院	-1533
左下颈及	-1534
周边可见血流信号	-1535
颈外	-1536
实质回声不均匀	-1537
术区未见异常回声	-1538
宫体大小	-1539
:1.2×0.8	-1540
周边可见低回声晕环	-1541
液体	-1542
等回声区	-1543
-2	-1544
强回声团	-1545
肌壁回声不均匀	-1546
甲状腺左右叶及峡部实质回声减低	-1547
可见多个实性	-1548
可见多发低回声肿大淋巴结	-1549
甲状腺左叶肿物	-1550
背景	-1551
甲状腺右叶实性肿物	-1552
▁右下颈气管旁	-1553
肝右叶可见一	-1554
良性	-1555
:3.6	-1556
▁甲状腺左叶结节	-1557
×3.8	-1558
可见多发实性及囊性结节	-1559
×0.79	-1560
位于右侧	-1561
呈中低回声	-1562
深层可见一大小约	-1563
肝左叶占位性病变	-1564
峡叶厚	-1565
低回声肿大淋巴结影	-1566
▁甲状腺左右叶多发囊性结节	-1567
可见丰富血流信号	-1568
轮廓清	-1569
BRA	-1570
BRAF	-1571
可见范围约	-1572
块状钙化	-1573
双侧胫后静脉及	-1574
回声衰减	-1575
背景回声	-1576
▁甲状腺右叶回声不均匀	-1577
2.9	-1578
▁双颈部	-1579
:0.9×0.8	-1580
×0.81	-1581
▁甲状腺多发肿物及结节	-1582
期峰值流速约	-1583
深层可见一实性结节	-1584
▁甲状腺右叶中下实性结节	-1585
收缩	-1586
肝脏形态饱满	-1587
双乳腺体不厚	-1588
偏内侧可见一	-1589
0.35	-1590
浅层可见一实性结节	-1591
×0.80	-1592
表面不光滑	-1593
皮髓质	-1594
管腔	-1595
界限尚清	-1596
×1.2×1.0	-1597
间可见多个低回声反射区	-1598
×4.0	-1599
或桥本结节	-1600
前壁	-1601
部分形状欠规则	-1602
双侧腮腺	-1603
浅层可见一大小约	-1604
背侧	-1605
增生结节	-1606
舒张功能	-1607
0.37	-1608
双小腿肌间静脉	-1609
未见明显血栓影像	-1610
乳头	-1611
固醇	-1612
胆固醇	-1613
×0.19	-1614
0.33	-1615
×0.82	-1616
部扫查	-1617
颌下腺及双侧腮腺未见明显肿物	-1618
考虑不典型结甲可能性大	-1619
小腿肌间静脉未见明显血栓影像	-1620
0.41	-1621
0.5×0.2	-1622
0.40	-1623
胆固醇结晶	-1624
左颈部多发肿大淋巴结	-1625
甲状腺左叶多发肿物及结节	-1626
0.7×0.6	-1627
×3.9	-1628
:3.7	-1629
宫壁回声不均匀	-1630
双上中下颈	-1631
0.39	-1632
×1.3×0.9	-1633
甲状腺左叶上中下可见多发实性	-1634
4、6	-1635
极低回声区	-1636
0.32	-1637
3.0	-1638
甲状腺左叶实性肿物	-1639
部分内可见点状强回声	-1640
▁甲状腺右叶中部	-1641
:0.5×0.5	-1642
双乳呈	-1643
甲状腺右叶实质回声粗糙不均匀	-1644
形态稍饱满	-1645
:1.3×0.9	-1646
后伴声影	-1647
考虑术后改变可能性大	-1648
颈后	-1649
甲状腺峡叶偏左可见一	-1650
左中上颈	-1651
-4	-1652
▁甲状腺右叶囊性结节	-1653
▁甲状腺左叶囊性结节	-1654
×1.3×1.0	-1655
肝管未见扩张	-1656
0.9×0.4	-1657
双肾大小	-1658
中间位置	-1659
0.36	-1660
卧位	-1661
:1.1×0.6	-1662
×0.83	-1663
中低回声反射区	-1664
0.34	-1665
0.31	-1666
0.44	-1667
▁甲状腺右叶中部实性结节	-1668
0.38	-1669
规整	-1670
0.42	-1671
肌层	-1672
不规则增厚	-1673
(7	-1674
×0.84	-1675
部分内可见强回声小钙化	-1676
形钙化	-1677
:3.8	-1678
分布不均匀	-1679
相邻	-1680
FN	-1681
考虑良性	-1682
术区软组织回声不均匀	-1683
3)	-1684
可见点线状血流信号	-1685
强回声区	-1686
及腹膜后扫查	-1687
考虑脂肪	-1688
纤维腺体	-1689
▁甲状腺右叶下极实性结节	-1690
肝右叶钙化灶	-1691
似可见点状强回声	-1692
0.30	-1693
1.0×0.6	-1694
片状回声减低区	-1695
2,	-1696
FNA	-1697
:1.4×1.0	-1698
右侧颌下腺	-1699
无回声区	-1700
部分可见强回声小钙化	-1701
左上中下颈	-1702
及囊实性	-1703
包块	-1704
0.45	-1705
右叶上中下可见多发实性	-1706
甲状腺左残叶回声不均匀	-1707
0.28	-1708
0.43	-1709
1.0×0.5	-1710
▁甲状腺左叶中部	-1711
建议观察	-1712
×0.86	-1713
(7-11	-1714
×4.1	-1715
偏深层可见一	-1716
3.1	-1717
左侧颌下腺	-1718
为主	-1719
附壁胆固醇结晶	-1720
可见一低回声淋巴结影	-1721
砾样钙化	-1722
×0.85	-1723
甲状腺左右残叶	-1724
右中上颈	-1725
可见血流信号	-1726
甲状腺峡叶偏右可见一	-1727
角变	-1728
0.46	-1729
缘角变	-1730
缘角变顿	-1731
右侧腮腺及双侧颌下腺	-1732
实性及囊实性结节	-1733
部分内可见粗大钙化	-1734
浅层可见一低回声区	-1735
内叶	-1736
氏囊肿	-1737
可疑转移瘤	-1738
×4.2	-1739
0.48	-1740
请结合临床	-1741
纤维腺体背景回声	-1742
那勃	-1743
甲状腺右叶及峡叶	-1744
学检查	-1745
那勃氏囊肿	-1746
多发低回声结节	-1747
甲状腺左叶结节	-1748
▁甲状腺左叶中部实性结节	-1749
区未见明显肿物	-1750
考虑增生结节	-1751
部分内可见强回声钙化	-1752
=9	-1753
结构清晰	-1754
甲状腺右叶结节	-1755
:1,	-1756
左侧腮腺及双侧颌下腺	-1757
3.2	-1758
及右下颈气管旁	-1759
其内	-1760
不除外	-1761
:1.0×0.4	-1762
可见多发小结节	-1763
可见多发实性及囊实性肿物及结节	-1764
下颈部	-1765
轮廓规整	-1766
壁不规则增厚	-1767
甲状腺术后	-1768
可见多发低回声反射区	-1769
内血流信号不明显	-1770
0.2×0.1	-1771
甲状腺左叶实质回声减低	-1772
微小	-1773
星尾	-1774
支及	-1775
:3.9	-1776
0.5×0.5	-1777
稍小	-1778
主动脉瓣	-1779
甲状腺左叶及峡叶	-1780
非均匀	-1781
×1.4×1.0	-1782
×1.1×1.0	-1783
8.	-1784
×4.3	-1785
显示欠清	-1786
左右支及	-1787
左右支及主干	-1788
左腋下	-1789
深层可见一低回声区	-1790
门静脉左右支及主干	-1791
门静脉左右支及主干未见扩张	-1792
彗星尾	-1793
性脂肪肝	-1794
生长	-1795
可见稍丰富血流信号	-1796
腺体回声不均匀	-1797
对称	-1798
慢性	-1799
:4.0	-1800
×0.88	-1801
0.47	-1802
部分结节内可见	-1803
可见一低回声结节	-1804
0.27	-1805
淋巴瘤	-1806
非均匀性脂肪肝	-1807
宫壁间可见多个低回声反射区	-1808
呈等回声	-1809
0.29	-1810
点状强回声附壁	-1811
右腋下	-1812
结合病史	-1813
:0.8×0.3	-1814
三尖瓣反流	-1815
▁甲状腺左叶中下实性结节	-1816
后位	-1817
腔内可见多个强回声光团伴声影	-1818
0.26	-1819
0.49	-1820
左侧颈部	-1821
×0.87	-1822
3.3	-1823
甲状腺多发肿物及结节	-1824
伴囊性变	-1825
可见一个大小	-1826
炎性病变	-1827
胸腔	-1828
甲状腺右残叶回声不均匀	-1829
×1.2×0.7	-1830
左锁上多发淋巴结	-1831
变细	-1832
肾盂输尿管未见扩张	-1833
中层可见一大小	-1834
高回声	-1835
纤维化钙化	-1836
层次	-1837
远场	-1838
双中上颈	-1839
大钙化	-1840
右上中下颈	-1841
甲状旁腺囊肿	-1842
内部回声不均	-1843
建议复查	-1844
后方伴声影	-1845
1-2	-1846
×0.89	-1847
界限不清	-1848
偏浅层可见一	-1849
×4.5	-1850
上下	-1851
0.50	-1852
最大位于	-1853
0.51	-1854
×0.18	-1855
必要	-1856
必要时	-1857
×4.4	-1858
右颈部多发肿大淋巴结	-1859
可见多发淋巴结	-1860
可见片状回声减低区	-1861
内上	-1862
及肿物影	-1863
双乳呈不均匀	-1864
可见多个囊性结节	-1865
甲状腺右叶实性结节伴钙化	-1866
可见液性暗区	-1867
分支	-1868
多发低回声区	-1869
▁甲状腺区未见明显肿物	-1870
仰卧位	-1871
0.24	-1872
0.52	-1873
(3、4	-1874
建议密切观察	-1875
双侧颈部未见明显肿大淋巴结	-1876
节育	-1877
处可见一	-1878
可见散在	-1879
周边可见环	-1880
内见	-1881
双侧颈	-1882
0.25	-1883
考虑结甲或桥本结节	-1884
考虑炎性上腹部未见明显肿物	-1885
频谱	-1886
左房	-1887
右侧颈部	-1888
×1.3×0.8	-1889
0.53	-1890
:1.2×0.7	-1891
未见明显异常及肿物影	-1892
内可见点状血流信号	-1893
隙显示清晰	-1894
考虑混合瘤	-1895
0.55	-1896
行穿刺活检	-1897
腹膜后隙显示清晰	-1898
管腔对称	-1899
可见沙砾样钙化	-1900
×1.4×1.1	-1901
位于前壁	-1902
请结合甲功	-1903
深面可见一	-1904
考虑为	-1905
囊性区	-1906
贲门	-1907
分支结构	-1908
可见粗大钙化	-1909
肝内血管分支结构	-1910
患者仰卧位	-1911
常规	-1912
运动	-1913
:4.1	-1914
×0.90	-1915
位于肝左外叶	-1916
毒铺	-1917
毒铺巾	-1918
消毒铺巾	-1919
肝内多发占位性病变	-1920
常规消毒铺巾	-1921
浅层回声不均匀	-1922
可见多个潜在	-1923
▁甲状腺右叶囊实性结节	-1924
上极可见大小为	-1925
影响	-1926
无回声	-1927
肝实质回声稍	-1928
:1.1×0.5	-1929
肝内血管分支结构显示清晰	-1930
未见明显异常回声淋巴结影	-1931
0.54	-1932
胆囊结石	-1933
双侧髂脉管区扫查	-1934
▁甲状腺左叶下极实性结节	-1935
较前缩小	-1936
双颌下可见多发低回声肿大淋巴结影	-1937
右叶下极	-1938
双颌下多发肿大淋巴结	-1939
象限	-1940
0.9×0.7	-1941
甲状腺弥漫性增大	-1942
周边可见少许血流信号	-1943
中部可见大小为	-1944
位于肝右叶可见一囊性无回声区	-1945
下极可见大小为	-1946
余腺体	-1947
双乳腺体增生	-1948
×1.3×1.1	-1949
前方	-1950
甲状腺左右叶多发囊性结节	-1951
回声稍粗糙	-1952
甲状腺实质回声粗糙	-1953
于上颈颈前可见一囊性无回声区	-1954
层次不清	-1955
边缘	-1956
×0.91	-1957
斑块	-1958
:0.1	-1959
内侧近峡叶	-1960
等回声结节	-1961
余颈	-1962
:0.6×0.6	-1963
胀气	-1964
0.56	-1965
随体位改变	-1966
×1.4×0.9	-1967
多发肿物	-1968
显示欠清晰	-1969
子宫后位	-1970
皮髓质界限	-1971
×4.6	-1972
3.4	-1973
强回声结晶	-1974
中部可见一	-1975
1.0×0.7	-1976
肝静脉显示清晰	-1977
×1.1×0.6	-1978
皮髓质界限清晰	-1979
似可见强回声小钙化	-1980
子宫肌瘤	-1981
:4.2	-1982
形状尚规则	-1983
×0.92	-1984
条索状强回声	-1985
=4	-1986
未见明显肿大及异常	-1987
囊壁不光滑	-1988
▁甲状腺右叶中上实性结节	-1989
0.57	-1990
▁甲状腺左叶囊实性结节	-1991
甲状腺左叶实性结节伴钙化	-1992
主动脉窦	-1993
▁患者仰卧位	-1994
节育器	-1995
考虑炎症	-1996
可见一个低回声反射区	-1997
3.5	-1998
肝实质回声稍增强	-1999
内透声可	-2000
细胞学检查	-2001
内可见点状强回声反射	-2002
▁双锁上	-2003
甲状腺右叶可见多发囊性结节	-2004
暗淡	-2005
形态欠规则	-2006
涎腺	-2007
位于右侧腮腺	-2008
硬化	-2009
位于左侧腮腺	-2010
甲状腺右叶囊实性结节	-2011
上窝	-2012
送细胞学检查	-2013
增宽	-2014
涂片	-2015
还可见一	-2016
及强回声反射	-2017
右房	-2018
双乳呈不均匀纤维腺体背景回声	-2019
0.59	-2020
左心	-2021
甲状腺右叶实质回声减低	-2022
节段	-2023
左室壁	-2024
呈实性低回声区	-2025
较大者	-2026
右叶中上	-2027
4、	-2028
局限性炎症	-2029
考虑腺瘤样	-2030
▁左上颈	-2031
及桥本结节	-2032
宫内膜显示不清	-2033
脾门	-2034
及囊实性肿物	-2035
=2	-2036
×0.93	-2037
×1.2×1.1	-2038
最大范围约	-2039
可试	-2040
节段性	-2041
近下极实性结节	-2042
满意	-2043
部分可见结晶	-2044
▁甲状腺未见明显肿物	-2045
抽吸内容物涂片	-2046
节段性运动	-2047
双肾囊肿	-2048
患者所	-2049
:6	-2050
测量	-2051
纤维瘤	-2052
甲状腺左右叶可见多发低回声结节	-2053
强化	-2054
上颈部	-2055
双小腿	-2056
甲状腺左叶弥漫性病变	-2057
其他	-2058
可见点状强回声钙化	-2059
或反应性	-2060
实质回声增强	-2061
可见条索状强回声	-2062
弹性	-2063
治疗后	-2064
耳后	-2065
左下颈气管旁可见一	-2066
3.6	-2067
可见多个低回声淋巴结	-2068
见一	-2069
(23	-2070
上腹腹膜后	-2071
状态	-2072
位于右下颈	-2073
:7.	-2074
▁甲状腺右叶低回声区	-2075
血分	-2076
腺瘤	-2077
射血分	-2078
射血分数	-2079
-5	-2080
▁左颈部	-2081
▁左颈部多发肿大淋巴结	-2082
×0.95	-2083
甲状腺右叶下极实性结节	-2084
盆腔内	-2085
左叶中下	-2086
宫内	-2087
双侧涎腺	-2088
近峡部可见一	-2089
×4.7	-2090
测定	-2091
功能测定	-2092
心包	-2093
状态正常	-2094
结合临床	-2095
左心功能测定	-2096
前叶	-2097
4-5	-2098
Ea	-2099
宫内可见	-2100
开闭状态正常	-2101
较规则	-2102
及囊实性低回声结节	-2103
超声测量	-2104
×1.5×1.1	-2105
左室后壁厚度正常	-2106
---	-2107
液体吸收后改变	-2108
(34-5	-2109
×0.94	-2110
×4.8	-2111
实质回声稍减低	-2112
被膜关系密切	-2113
:1.0×1.0	-2114
室间隔及	-2115
考虑脂肪瘤	-2116
:4.3	-2117
腔室	-2118
内可见多发实性及囊实性结节	-2119
35	-2120
胸骨上窝	-2121
bp	-2122
bpm	-2123
内可见多个	-2124
室间隔及左室后壁厚度正常	-2125
:1.3×0.8	-2126
腔室大小正常	-2127
0.60	-2128
:0.35	-2129
节段性运动异常	-2130
炎性待除外	-2131
(21	-2132
可见强回声光点	-2133
3、	-2134
心脏各	-2135
(23-38	-2136
锁骨	-2137
:1.2×0.6	-2138
0.58	-2139
肝内未见明显占位性病变	-2140
0.23	-2141
少量	-2142
术区未见明显肿物	-2143
左锁上可见多发低回声淋巴结影	-2144
甲状腺左叶囊实性结节	-2145
2)	-2146
心脏各腔室大小正常	-2147
位置正常	-2148
主动脉窦径	-2149
房室	-2150
房室瓣	-2151
大动脉瓣	-2152
大动脉瓣形态	-2153
下极可见一	-2154
甲状腺左右叶肿物及结节	-2155
位于肝左叶可见一囊性无回声区	-2156
左房前后径	-2157
可见点	-2158
室间隔厚度	-2159
肝右叶多发占位性病变	-2160
末径	-2161
左室舒	-2162
左室舒末径	-2163
甲状腺左叶近下极可见一	-2164
位于后壁	-2165
甲状腺左右叶实性结节	-2166
腔静脉	-2167
造影	-2168
腘静脉管腔对称	-2169
胆囊切除术后	-2170
甲状腺形态饱满	-2171
部可见	-2172
右室	-2173
外下	-2174
双上颈多发肿大淋巴结	-2175
射频	-2176
考虑肝	-2177
内可见多发实性	-2178
各房室瓣	-2179
▁甲状腺左叶上极实性结节	-2180
▁右上颈	-2181
右房左右径	-2182
▁双颈	-2183
:0.40	-2184
▁甲状腺右叶中上	-2185
双上颈可见多发肿大淋巴结影	-2186
(<	-2187
甲状腺右叶近下极可见一	-2188
(21-38	-2189
:0.44	-2190
肿物细针抽吸	-2191
置入	-2192
导管扩张	-2193
0.8×0.7	-2194
DI	-2195
心率	-2196
腔内可见一	-2197
(30	-2198
0.62	-2199
:0.41	-2200
-40	-2201
(30-40	-2202
:1.4×0.9	-2203
(<35	-2204
0.61	-2205
右室左右径	-2206
条状血流信号	-2207
▁甲状腺左叶中上实性结节	-2208
宫颈多发	-2209
胆总管宽	-2210
:4.4	-2211
▁左侧腮腺	-2212
甲状腺左右叶上中下可见多发囊性	-2213
×1.5×1.2	-2214
×1.5×1.0	-2215
右下颈气管旁可见一	-2216
肝右叶可见一钙化灶	-2217
甲状腺左叶可见多发囊性结节	-2218
:0.36	-2219
位于左下颈	-2220
基因	-2221
:0.32	-2222
基因检测	-2223
部分肿物	-2224
透声欠佳	-2225
TDI	-2226
患者自	-2227
0.22	-2228
甲状腺肿	-2229
余肝实质回声均匀	-2230
其内未见明显异常回声	-2231
×0.97	-2232
副脾	-2233
囊性成分	-2234
×0.96	-2235
动的	-2236
宫内可见节育器	-2237
位于肝右	-2238
考虑桥本	-2239
▁胃	-2240
后叶	-2241
:0.37	-2242
左下颈多发淋巴结	-2243
甲状腺右叶中部实性结节	-2244
×4.9	-2245
:0.39	-2246
可见多发囊性无回声	-2247
×1.4×1.2	-2248
0.8×0.3	-2249
肝内可见多发囊性无回声区	-2250
部分呈结节融合状	-2251
甲状腺右叶弥漫性病变	-2252
可见大小不等的	-2253
另可见一	-2254
点状弱回声	-2255
炎性淋巴结	-2256
:1.5×1.0	-2257
膜增厚	-2258
下方可见一	-2259
0.64	-2260
多发扁平状	-2261
:0.42	-2262
考虑淋巴类肿物	-2263
×5.0	-2264
飘动的	-2265
位于上腹部	-2266
减少	-2267
位于左下颈气管旁	-2268
肝脏形态正常	-2269
双乳未见明显肿物	-2270
部分可见稍丰富血流信号	-2271
×0.98	-2272
高回声区	-2273
甲状腺峡部	-2274
部分可见强回声钙化	-2275
上下极	-2276
考虑结甲及桥本结节	-2277
部分边界不清	-2278
食管	-2279
×0.17	-2280
内可见飘动的	-2281
▁右侧腮腺	-2282
。2、	-2283
▁右颈部	-2284
符合治疗后改变	-2285
建议结合甲功检查脂肪肝	-2286
甲状腺右叶中下实性结节	-2287
:0.38	-2288
1.0×0.8	-2289
。4、	-2290
脂肪层	-2291
:0.33	-2292
纹理	-2293
及峡部	-2294
中间可见一大小	-2295
外侧可见一大小	-2296
腺体中间可见一大小	-2297
3.7	-2298
无明显变化	-2299
考虑慢性	-2300
膀胱充盈佳	-2301
纹理欠清晰	-2302
符合淋巴类肿物	-2303
甲状腺左右叶回声粗糙不均匀	-2304
囊壁薄	-2305
位于左	-2306
:0.45	-2307
:0.34	-2308
×0.99	-2309
▁左锁上多发淋巴结	-2310
保存	-2311
保存液	-2312
0.63	-2313
置入细胞	-2314
置入细胞保存液	-2315
血管纹理欠清晰	-2316
考虑桥本结节可能性大	-2317
全项	-2318
囊内透声	-2319
可见多发实性肿物	-2320
绕血流信号	-2321
及气管前	-2322
口底	-2323
内可见粗大钙化	-2324
胫后静脉血流信号充盈良好	-2325
宫内环	-2326
考虑来自甲状旁腺	-2327
:0.31	-2328
甲状腺右叶中下可见多发实性结节	-2329
:4.5	-2330
瘤体内血流信号较丰富	-2331
双小腿胫后静脉及	-2332
:0.46	-2333
双小腿肌间静脉血流充盈良好	-2334
扁平状淋巴结影	-2335
:0.30	-2336
:0.28	-2337
吸收后	-2338
建议结合甲功全项	-2339
构瘤	-2340
错构瘤	-2341
可见多发肿大淋巴结	-2342
可见多个点状强回声附壁	-2343
子宫内膜	-2344
及峡叶可见多发实性	-2345
微小癌	-2346
显示欠清楚	-2347
1.1×0.6	-2348
皮下软组织内	-2349
伴强回声反射	-2350
可见多发囊实性结节	-2351
水平	-2352
镜检查	-2353
扫查不清	-2354
考虑炎性或反应性	-2355
3.8	-2356
中低回声区	-2357
:4.6	-2358
▁甲状腺右叶上极实性结节	-2359
▁甲状腺右叶多发实性结节	-2360
肝内血流	-2361
部分内可见强回声髓质	-2362
左右叶上中下	-2363
该肿物	-2364
×1.6×1.2	-2365
囊内透声清晰	-2366
考虑炎性脂肪肝	-2367
▁甲状腺左叶低回声区	-2368
其他检查	-2369
舌骨周围	-2370
色彩	-2371
▁肝右叶占位性病变	-2372
最厚壁	-2373
4.0	-2374
及血栓	-2375
▁右颈部多发肿大淋巴结	-2376
:0.43	-2377
内回声欠均匀	-2378
皮下软组织内可见一	-2379
双侧腹股沟淋巴结扫查	-2380
:0.48	-2381
1。	-2382
毛糙	-2383
后方可见一	-2384
中间位置可见一	-2385
肺动脉瓣	-2386
收缩期峰值流速约	-2387
胸壁	-2388
无声影	-2389
5、	-2390
色彩暗淡	-2391
▁甲状腺右叶多发实性肿物	-2392
可试行穿刺活检	-2393
▁肝内多发囊肿	-2394
体积	-2395
胆囊多发附壁胆固醇结晶	-2396
最宽	-2397
囊性小结节	-2398
肝内血流变细	-2399
1.0×0.4	-2400
1.1×0.5	-2401
中上可见大小为	-2402
管状结构显示欠清楚	-2403
胆囊壁欠光滑	-2404
瘤体内血流信号丰富	-2405
二尖瓣舒张	-2406
远场回声衰减	-2407
右叶中下可见多发实性	-2408
各可见一个	-2409
内可见飘动的点状弱回声	-2410
可见条形血流信号	-2411
腮腺内	-2412
及左叶	-2413
囊内透声好	-2414
左乳外上	-2415
欠均	-2416
0.6×0.6	-2417
粗大强回声钙化	-2418
×1.01	-2419
考虑腺纤维瘤	-2420
未见明显扩张及血栓	-2421
Aa	-2422
中强回声区	-2423
▁甲状腺左叶中上	-2424
未见明显扩张及血栓影像	-2425
(4、6	-2426
基本	-2427
×1.3×1.2	-2428
双腹股沟淋巴结扫查	-2429
血流信号不明显	-2430
0.66	-2431
0.21	-2432
自甲状腺右叶肿物	-2433
CT	-2434
×5.1	-2435
:0.47	-2436
左下颈气管旁淋巴结	-2437
内可见强回声髓质	-2438
:0.7×0.7	-2439
▁甲状腺左	-2440
弱回声结节	-2441
余颈部未见明显异常回声淋巴结影	-2442
合并桥本结节	-2443
0.65	-2444
脾脏增大	-2445
1.1×0.8	-2446
锁穿	-2447
基本正常	-2448
直径的	-2449
考虑甲状旁腺囊肿	-2450
1.1×0.9	-2451
最大结节	-2452
抽吸内容物置入细胞保存液	-2453
甲状腺右叶可见多发实性及囊性结节	-2454
右侧腮腺未见明显肿物	-2455
0.68	-2456
:0.51	-2457
不连续	-2458
可见低回声晕环	-2459
:1.3×0.7	-2460
左锁上可见一	-2461
实性低回声肿物	-2462
0.67	-2463
右乳外上	-2464
×1.02	-2465
小块状钙化	-2466
双颈部多发淋巴结	-2467
位于右下颈气管旁	-2468
锁区	-2469
▁甲状腺峡叶实性结节	-2470
具体	-2471
甲状腺左右叶弥漫性增大	-2472
甲状腺右叶可见多发囊性	-2473
×7.	-2474
×1.6×1.1	-2475
后方回声衰减	-2476
可探及	-2477
随体位改变移动	-2478
考虑腺瘤样甲状腺肿	-2479
结甲伴钙化	-2480
部分内可见少许血流信号	-2481
自甲状腺左叶肿物	-2482
较前无明显变化	-2483
脾肿大	-2484
透声尚可	-2485
:1.2×0.5	-2486
实质回声稍粗糙	-2487
瓣膜	-2488
▁1、	-2489
未见明显节段性运动异常	-2490
肝内管状结构欠清	-2491
考虑炎性淋巴结	-2492
甲状腺左右叶中下可见多发实性	-2493
右叶上中下	-2494
左室壁未见明显节段性运动异常	-2495
3.9	-2496
实质光点分布不均匀	-2497
▁上腹部未见明显肿物	-2498
:0.52	-2499
:0.50	-2500
主动脉瓣收缩期峰值流速约	-2501
二尖瓣舒张早	-2502
腔内未见明显积液	-2503
=8	-2504
相似	-2505
二尖瓣舒张早期峰值流速约	-2506
双颈部未见明显肿大淋巴结	-2507
患者自述	-2508
可见两个相邻	-2509
被膜表面平滑	-2510
点状回声	-2511
胸骨后	-2512
考虑错构瘤	-2513
9.	-2514
及左下颈气管旁	-2515
1.1×0.7	-2516
心包腔内未见明显积液	-2517
强回声钙化灶	-2518
双腹股沟未见明显肿大淋巴结	-2519
术区未见明显肿物影	-2520
合并结甲	-2521
:0.49	-2522
实性成分	-2523
:0.29	-2524
扁平淋巴结	-2525
可见多发点状强回声	-2526
×1.4×0.8	-2527
双侧涎腺及	-2528
:4.7	-2529
上腺	-2530
下颈颈前	-2531
静脉扫查	-2532
湍流	-2533
:0.26	-2534
:0.53	-2535
1。5、	-2536
残存	-2537
弱回声反射	-2538
0.71	-2539
伴纤维化钙化	-2540
0.69	-2541
湍流频谱	-2542
开闭良好	-2543
甲状腺左右叶回声欠均匀	-2544
:0.8×0.8	-2545
甲状腺左叶部分切除术后	-2546
瓣膜开闭良好	-2547
左侧腮腺未见明显肿物	-2548
×1.03	-2549
内侧近峡叶可见一	-2550
6、	-2551
中下可见大小为	-2552
甲状腺右叶多发实性结节	-2553
无法	-2554
×1.0×0.8	-2555
位于肝左内叶	-2556
甲状腺左叶中下实性结节	-2557
考虑副脾	-2558
晕环	-2559
弧形钙化	-2560
×1.3×0.7	-2561
不详	-2562
×1.6×1.3	-2563
弥漫性肿大	-2564
右叶中部	-2565
。3、	-2566
上腹腹主动脉周围	-2567
残余腺体	-2568
▁甲状腺左右叶及峡叶	-2569
甲状腺左右叶实质回声粗糙	-2570
受锁穿	-2571
交界	-2572
胆囊缺如	-2573
▁右中颈	-2574
cmCDFI	-2575
伴周围	-2576
:0.27	-2577
餐后	-2578
▁甲状腺左叶多发实性结节	-2579
:0.54	-2580
内部透声好	-2581
甲状腺左叶下极实性结节	-2582
:0.55	-2583
考虑结节性甲状腺肿伴囊性变	-2584
内可见点线状血流信号	-2585
及钙化	-2586
:1.3×0.6	-2587
甲状腺左叶中部实性结节	-2588
及双下颈气管旁	-2589
宫腔	-2590
甲状腺外院	-2591
周边可见低回声晕	-2592
内可见一大小约	-2593
甲状腺右叶部分切除术后	-2594
中间层可见一	-2595
偏外侧可见一大小约	-2596
建议定期复查	-2597
0.9×0.8	-2598
大小形态正常	-2599
上颈颈前囊性区	-2600
左锁上可见多发低回声肿大淋巴结影	-2601
甲状腺右叶上中下可见多发实性结节	-2602
自甲状腺右叶肿物内抽吸	-2603
挤压	-2604
沙粒样钙化	-2605
肝实质光点分布不均匀	-2606
×1.5×1.3	-2607
部分可见周边血流信号	-2608
×5.2	-2609
甲状腺峡叶实性结节	-2610
。6、	-2611
考虑治疗后改变	-2612
右侧颌下腺及双侧腮腺未见明显肿物	-2613
左侧颌下腺及双侧腮腺未见明显肿物	-2614
▁甲状腺左残叶多发结节	-2615
位于子宫	-2616
可见密集	-2617
×1.5×0.9	-2618
正中	-2619
内及	-2620
膀胱充盈尚可	-2621
桥本结节待除外	-2622
腺体中间可见一大小约	-2623
结甲吸收后改变	-2624
治疗后复查	-2625
术区回声欠均匀	-2626
0.73	-2627
双侧胸腔	-2628
右侧多发	-2629
×1.04	-2630
甲状腺左右叶可见多个囊性回声	-2631
肺动脉瓣反流	-2632
:1.1×0.9×0.7	-2633
肺动脉	-2634
转移性甲状腺	-2635
肝左外叶	-2636
腺体回声	-2637
中下可见一	-2638
2、3、4、6	-2639
0.70	-2640
患者所述	-2641
:0.56	-2642
位于肝右叶可见一个中强回声反射区	-2643
胫后静脉管壁光滑	-2644
低回声肿大淋巴结	-2645
左下颈部	-2646
1.2×0.6	-2647
:4.8	-2648
盆腔积液	-2649
▁甲状腺峡叶偏左	-2650
左锁上多发肿大淋巴结	-2651
肝内实质回声增强	-2652
1,	-2653
1.2×0.9	-2654
×1.00	-2655
0.20	-2656
位于右	-2657
:4.9	-2658
×1.7×1.2	-2659
位于右侧腮腺内可见一	-2660
×1.7×1.3	-2661
自甲状腺左叶肿物内抽吸	-2662
:0.57	-2663
未见湍流频谱	-2664
浅层被膜	-2665
:1.4×0.8	-2666
偏浅层	-2667
位于左叶	-2668
×1.1×1.1	-2669
▁左颈	-2670
肾上腺	-2671
可疑淋巴类肿物	-2672
4.1	-2673
多发结石	-2674
1.5×0.6	-2675
0.72	-2676
可见两个实性结节	-2677
×1.06	-2678
盆腔未见明显肿物影像	-2679
下腹	-2680
▁甲状腺右残叶多发结节	-2681
甲状腺回声欠均匀	-2682
:0.25	-2683
可见多个低回声结节	-2684
小囊肿	-2685
可见液性区	-2686
▁左中颈	-2687
×1.05	-2688
膈上	-2689
上腹腹腔	-2690
无法扫查	-2691
各可见一实性结节	-2692
单发	-2693
:5.0	-2694
外侧浅层可见一	-2695
:0.58	-2696
肝内点状回声	-2697
或结甲	-2698
小淋巴结	-2699
实性低回声反射区	-2700
近上极实性结节	-2701
薄厚	-2702
双肾多发囊肿	-2703
式不详	-2704
×1.6×1.0	-2705
:0.24	-2706
▁甲状腺右叶双发实性结节	-2707
Hg	-2708
mmHg	-2709
背部扫查	-2710
耳下	-2711
肝内点状回声密集	-2712
甲状腺被膜	-2713
项部	-2714
×1.0×0.7	-2715
中强回声结节	-2716
左肾多发囊肿	-2717
收缩压	-2718
可见少许点状血流信号	-2719
▁甲状腺峡叶偏右	-2720
考虑结甲吸收后改变	-2721
收缩压约	-2722
甲状腺左叶中下可见多发实性结节	-2723
:0.9×0.9	-2724
可见多个低回声区	-2725
两处	-2726
甲状腺右叶中下可见多发实性	-2727
胸锁	-2728
宫体大小约	-2729
宫体萎缩	-2730
不满意	-2731
右下颈气管旁淋巴结	-2732
门静脉主干内径	-2733
▁甲状腺左右叶实性结节伴钙化	-2734
之间	-2735
4.2	-2736
位于中部	-2737
:0.59	-2738
部分伴钙化	-2739
×1.08	-2740
肝内血管血流信号	-2741
双侧上中下颈	-2742
左下颈多发肿大淋巴结	-2743
强回声结节	-2744
位于中下	-2745
1.2×0.5	-2746
%。	-2747
甲状腺左右叶回声不均匀	-2748
双下肢静脉扫查	-2749
来源	-2750
内侧可见一大小	-2751
甲状腺右叶中上实性结节	-2752
×5.3	-2753
×0.16	-2754
:0.60	-2755
肺动脉收缩压约	-2756
甲状腺左叶多发实性结节	-2757
位于左侧腮腺内可见一	-2758
皮下可见一	-2759
肝硬化	-2760
肝内血管血流信号减少	-2761
子宫肌层	-2762
可见低回声区	-2763
及右锁上	-2764
肝内血管显示清晰	-2765
结构尚清	-2766
▁甲状腺右叶多发	-2767
偏深层	-2768
×1.07	-2769
未见异常	-2770
0.75	-2771
内可见较丰富血流信号	-2772
可见多个实性肿物	-2773
双小腿肌间静脉血流信号充盈良好	-2774
(8	-2775
0.74	-2776
内回声不均	-2777
考虑慢性炎症	-2778
,,	-2779
1.0×0.9	-2780
近心	-2781
1.2×0.8	-2782
术式不详	-2783
:1.5×0.9	-2784
肝脏增大	-2785
(8-11	-2786
余颈部未见明显肿大及异常	-2787
1.2×0.7	-2788
直径的强回声光团伴声影	-2789
可见多个淋巴结影	-2790
近心段	-2791
位于上极	-2792
甲状腺左叶可见多发实性及囊性结节	-2793
囊壁毛糙	-2794
甲状腺左叶可见多发囊性	-2795
▁左下颈气管旁多发淋巴结	-2796
区交界	-2797
壁增厚	-2798
1.3×0.6	-2799
右锁上受锁穿	-2800
甲状腺右叶上极实性结节	-2801
区及	-2802
子宫后方	-2803
内可见片状回声减低区	-2804
乳头状	-2805
可见多个囊性无回声区	-2806
及液性区	-2807
相当于胃	-2808
可见多发片状低回声区	-2809
1.6×0.6	-2810
:5.1	-2811
液体吸收后	-2812
(34-51	-2813
胆囊餐后	-2814
内可见小钙化	-2815
:1.1×0.4	-2816
:0.61	-2817
位于右肾上极可见大小为	-2818
大小不等低回声区	-2819
透声差	-2820
股浅静脉及	-2821
甲状腺回声粗糙	-2822
×1.7×1.4	-2823
股浅静脉及股深静脉	-2824
×1.8×1.3	-2825
1.4×0.6	-2826
股浅静脉及股深静脉近心段	-2827
:0.64	-2828
宫颈前	-2829
右侧腹股沟	-2830
:1.3×0.5	-2831
×1.4×1.3	-2832
×1.09	-2833
考虑肝癌	-2834
胃及腹膜后扫查	-2835
双侧颌下腺及腮腺	-2836
双侧胸腔未见明显积液	-2837
▁甲状腺左叶双发实性结节	-2838
0.77	-2839
1)——	-2840
多发钙化灶	-2841
左颈部多发淋巴结	-2842
甲状腺左叶上极实性结节	-2843
▁甲状腺左叶多发实性肿物	-2844
气体	-2845
后唇	-2846
残存腺体	-2847
合并结节性甲状腺肿	-2848
局部呈极低回声	-2849
:0.62	-2850
结节伴钙化	-2851
肝内实质回声均匀	-2852
病变请结合	-2853
腔静脉周围	-2854
×1.8×1.4	-2855
可见小液性区	-2856
颈动脉	-2857
右锁上可见一	-2858
:1.1×0.9×0.6	-2859
切检	-2860
宫体大小正常	-2861
网膜增厚	-2862
部分结节内可见强回声结晶	-2863
多发扁平状淋巴结	-2864
▁甲状腺右叶下极实性肿物	-2865
:1.3×1.1	-2866
宫颈多发那勃氏囊肿	-2867
部分可见强回声反射	-2868
:1.4×0.7	-2869
×1.2×0.6	-2870
手术	-2871
内部回声尚均匀	-2872
甲状腺左右叶术后	-2873
甲状腺右叶多发囊性结节	-2874
×5.4	-2875
▁左下颈多发淋巴结	-2876
上腹胀气	-2877
其它	-2878
:1.2×1.0×0.7	-2879
左侧腹股沟	-2880
双肾可见多发囊性无回声区	-2881
0.78	-2882
分界不清	-2883
小腿肌间静脉血流信号充盈良好	-2884
肋下	-2885
右侧叶	-2886
甲状腺左残叶回声欠均匀	-2887
部分可见点状强回声	-2888
×1.11	-2889
位于左乳	-2890
:0.23	-2891
甲状腺右叶近上极可见一	-2892
团块	-2893
0.79	-2894
×1.2×1.2	-2895
:5.2	-2896
紧邻	-2897
×1.10	-2898
及小钙化	-2899
位于肝内可见多个	-2900
位于右中下颈	-2901
居中	-2902
强回声光点	-2903
可见多处	-2904
较前无	-2905
4.3	-2906
甲状腺左叶近上极可见一	-2907
▁甲状腺右叶近下极实性结节	-2908
左肋下	-2909
子宫肌层可见点	-2910
上颈部多发肿大淋巴结	-2911
及实性结节	-2912
与甲状腺	-2913
平整	-2914
2)——	-2915
位于左中下颈	-2916
区可见一	-2917
双侧颈内静脉	-2918
双侧颌下腺及右侧腮腺未见明显肿物	-2919
宫内膜不厚	-2920
消融	-2921
:0.9×0.3	-2922
×1.6×1.4	-2923
▁右颈	-2924
位于左肾下极可见大小为	-2925
甲状腺右叶可见多发实性肿物及结节	-2926
左肋下未探及	-2927
1.7×0.6	-2928
位于肝右叶可见一大小	-2929
双中下颈	-2930
右侧腮腺及双侧颌下腺未见明显肿物	-2931
扁平淋巴结影	-2932
内可见丰富血流信号	-2933
囊性病变	-2934
形态尚规则	-2935
浅层外侧可见一	-2936
偏内侧可见一大小约	-2937
▁右颌下	-2938
:0.66	-2939
宫颈前后唇	-2940
左侧叶	-2941
1.7×0.7	-2942
及囊性肿物及结节	-2943
致密	-2944
0.76	-2945
肿物切除术后	-2946
下降	-2947
周边可见大小不等钙化	-2948
及右叶中下	-2949
位于右叶	-2950
:1.1×1.0×0.7	-2951
粗大血流信号	-2952
强回声团伴声影	-2953
肌间静脉未见明显血栓形成	-2954
考虑结甲合并桥本结节	-2955
舒张功能下降	-2956
肌间静脉血流信号充盈良好	-2957
宫颈前后唇可见多发囊性无回声	-2958
0.19	-2959
深层可见	-2960
内部及	-2961
近浅层可见一	-2962
周边可见环绕血流信号	-2963
0.7×0.7	-2964
外侧深层可见一	-2965
双发实性结节伴钙化	-2966
甲状腺左叶囊实性肿物	-2967
×1.0×0.9	-2968
强回声光团影	-2969
盆腔内囊性肿物	-2970
:1.4×0.6	-2971
:0.63	-2972
▁甲状腺右叶多发囊性结节	-2973
考虑那勃氏囊肿	-2974
:0.6×0.2	-2975
脾脏回声均匀	-2976
内可见少量血流信号	-2977
×1.7×1.1	-2978
甲状腺右叶囊实性肿物	-2979
偏深层可见一大小	-2980
腺体饱满	-2981
×1.13	-2982
▁肝右叶多发占位性病变	-2983
位于右肾中部可见大小为	-2984
界限欠清	-2985
下可见一	-2986
1.8×0.7	-2987
直径约	-2988
:1.2×1.0×0.8	-2989
左侧多发	-2990
偏浅层可见一大小	-2991
左下颈及左下颈气管旁	-2992
个实性结节	-2993
胃壁不规则增厚	-2994
×1.12	-2995
周边及内部可见较丰富血流信号	-2996
×5.5	-2997
可见多发小钙化	-2998
▁左锁上多发肿大淋巴结	-2999
神经	-3000
舌骨囊肿	-3001
卵巢可见	-3002
:0.65	-3003
双侧颌下腺及左侧腮腺未见明显肿物	-3004
左侧腮腺及双侧颌下腺未见明显肿物	-3005
向胸骨后	-3006
门静脉血流	-3007
深约	-3008
可见大小不等的钙化	-3009
▁双颈部扫查	-3010
4.4	-3011
内可见多发实性结节	-3012
多发实性	-3013
下段	-3014
浅层可见	-3015
0.82	-3016
来自甲状旁腺	-3017
甲状腺右叶及峡叶切除术后	-3018
:8.	-3019
:5.3	-3020
肝静脉及	-3021
肝实质回声粗糙	-3022
:0.3×0.1	-3023
4.5	-3024
双侧甲状腺切除术后	-3025
圆形	-3026
肝静脉及门静脉血流	-3027
甲状腺左叶上中下可见多发实性结节	-3028
乳突	-3029
考虑甲状腺炎症可能性大	-3030
上腹腹膜后扫查	-3031
不随体位改变移动	-3032
为著	-3033
可见钙化	-3034
此次	-3035
积水	-3036
:0.68	-3037
1.8×0.6	-3038
内部回声	-3039
内侧深层可见一	-3040
伴彗星尾	-3041
1.3×0.5	-3042
耳前	-3043
▁左侧	-3044
:1.5×0.8	-3045
位于左肾可见多发囊性无回声区	-3046
双侧腹股沟多发肿大淋巴结	-3047
1.3×0.7	-3048
▁甲状腺左叶多发囊性结节	-3049
1.4×0.7	-3050
左室舒张功能下降	-3051
双侧颈部未见明显肿大淋巴结影	-3052
:1.4×1.1	-3053
左颈后	-3054
▁右侧	-3055
乳突肌	-3056
甲状腺左叶中下可见多发实性	-3057
甲状腺右	-3058
:1.2×1.1	-3059
病灶	-3060
囊性成分为主	-3061
1.1×0.4	-3062
移位	-3063
其它检查	-3064
甲状腺左叶中上实性结节	-3065
10	-3066
胸锁乳突肌	-3067
1.5×0.7	-3068
稍大	-3069
▁上腹部	-3070
甲状腺回声不均	-3071
可见强回声小钙化及结晶	-3072
1.6×0.7	-3073
<1。5、	-3074
炎性甲状腺	-3075
余瓣膜开闭良好	-3076
×1.8×1.2	-3077
内侧浅层可见一	-3078
0.81	-3079
0.80	-3080
×1.15	-3081
1.5×0.5	-3082
树枝	-3083
肝静脉显示欠清晰	-3084
×1.14	-3085
肝左叶可见一	-3086
盆腔未见明显肿物颈部未见明显肿物	-3087
甲状腺左叶及峡叶切除术后	-3088
及双锁上	-3089
1.3×0.9	-3090
建议结合强化	-3091
右颌下可见多发低回声肿大淋巴结影	-3092
回声相似	-3093
位于肝左叶可见一大小	-3094
可见多发低回声实性肿物	-3095
位于右乳	-3096
造影剂	-3097
浅层内侧可见一	-3098
点状强回声反射	-3099
部分形态稍饱满	-3100
甲状腺左叶多发囊性结节	-3101
肝左内叶	-3102
皮下脂肪层	-3103
一个	-3104
环形钙化	-3105
峡叶大小	-3106
:0.67	-3107
考虑血管瘤可能性大	-3108
胃镜检查	-3109
×1.8×1.5	-3110
可见一低回声肿大淋巴结影	-3111
强回声髓质	-3112
考虑舌骨囊肿	-3113
:0.22	-3114
必要时结合	-3115
位于左肾中部可见大小为	-3116
双腋下及	-3117
及右残叶	-3118
病变显示不清	-3119
1.4×0.5	-3120
位于上腹部相当于胃	-3121
(2、	-3122
可见周边	-3123
×1.9×1.4	-3124
余肝内血管显示清晰	-3125
左右残叶	-3126
右锁上受锁穿影响	-3127
0.84	-3128
具体术式不详	-3129
胰头	-3130
区域	-3131
结甲液体吸收后改变	-3132
近深层可见一	-3133
上段	-3134
右肾多发囊肿	-3135
瘤体内血流信号稍丰富	-3136
实质光点粗糙	-3137
2、3、4	-3138
:1.2×0.9×0.7	-3139
细小	-3140
位于肝右前叶	-3141
可见一个强回声反射区	-3142
:1.5×1.1	-3143
▁甲状腺右叶及峡叶	-3144
考虑炎性甲状腺	-3145
局部呈低回声	-3146
甲状腺左叶下极可见一大小约	-3147
抗炎	-3148
甲状腺左右叶可见多发	-3149
×5.6	-3150
腺体不厚	-3151
淤积	-3152
胆汁	-3153
:5.4	-3154
子宫颈	-3155
甲状腺增大	-3156
×1.5×1.4	-3157
内可见强回声光点	-3158
0.83	-3159
内可见结晶	-3160
肝门	-3161
×1.9×1.5	-3162
▁甲状腺左叶多发	-3163
大小不等强回声钙化	-3164
皮下软组织内实性肿物	-3165
▁甲状腺左叶下极实性肿物	-3166
0.85	-3167
多支	-3168
分离	-3169
恶变	-3170
×1.16	-3171
甲状腺左叶缺如	-3172
周边可见薄厚	-3173
可见强回声大小不等钙化	-3174
甲状腺右叶缺如	-3175
:1.5×0.6	-3176
锁骨下	-3177
向胸骨后生长	-3178
多发低回声淋巴结	-3179
甲状腺右叶中部深层可见一	-3180
及气管旁	-3181
及下颈气管旁	-3182
1.3×0.8	-3183
甲状腺左叶中下及右叶	-3184
前被膜	-3185
4.6	-3186
:0.21	-3187
:0.70	-3188
1.9×0.6	-3189
胆汁淤积	-3190
以囊性成分为主	-3191
患者触	-3192
:1.1×0.8×0.6	-3193
0.86	-3194
:5.5	-3195
大小为	-3196
脾门部	-3197
×1.17	-3198
实质回声稍粗糙不均匀	-3199
轻度脂肪肝	-3200
颌下腺及腮腺	-3201
甲状腺多发结节	-3202
甲状腺右叶下极可见一大小约	-3203
滤泡	-3204
(1-2	-3205
甲状腺右叶多发	-3206
。7	-3207
回声欠均	-3208
1.9×0.7	-3209
实质回声分布均匀	-3210
甲状腺右叶可见	-3211
可见强回声粗大钙化	-3212
近浅层	-3213
:1.6×1.0	-3214
右颈部多发淋巴结	-3215
术区可见一	-3216
部分呈极低回声	-3217
:1.4×0.5	-3218
泥沙	-3219
可见一低回声淋巴结	-3220
结甲伴纤维化钙化	-3221
▁甲状腺左叶及峡叶	-3222
2.0×0.7	-3223
:1.5×0.7	-3224
位于右肾下极可见大小为	-3225
子宫后方可见液性暗区	-3226
肿瘤	-3227
:0.71	-3228
×1.18	-3229
。7、	-3230
较前变化	-3231
内可见密集	-3232
可见多个实性结节	-3233
树枝状血流信号	-3234
:0.69	-3235
:0.73	-3236
可见多个低回声实性肿物	-3237
腘静脉及	-3238
双侧颌下腺回声粗糙	-3239
▁甲状腺峡叶实性肿物	-3240
位于肝左叶可见一个中强回声反射区	-3241
甲状腺左右叶内	-3242
:1.1×1.0×0.8	-3243
:1.6×0.9	-3244
可见大小不等钙化伴声影	-3245
×1.19	-3246
前被膜关系密切	-3247
左锁上可见多发低回声区	-3248
内透声好	-3249
瘤体内可见	-3250
部分界欠清	-3251
▁甲状腺右叶多发小结节	-3252
血栓形成	-3253
▁甲状腺右叶下极实性结节伴钙化	-3254
左下颈可见多发低回声肿大淋巴结影	-3255
×2.0×1.5	-3256
甲状腺左叶上下	-3257
×1.9×1.3	-3258
宽度	-3259
管壁	-3260
内部可见强回声结晶	-3261
甲状腺左右叶多发小结节	-3262
术区回声不均	-3263
双侧小腿肌间静脉血流信号充盈良好	-3264
▁左颌下	-3265
动脉血流信号	-3266
走行	-3267
浅层近峡叶可见一	-3268
心脏超声测量	-3269
:5.6	-3270
×1.3×1.3	-3271
▁双颈多发肿大淋巴结	-3272
▁左侧腮腺实性肿物	-3273
:1.3×1.1×0.8	-3274
位于左肾上极可见大小为	-3275
内似	-3276
部分血流信号较丰富	-3277
▁甲状腺左右叶实性肿物	-3278
上极可见一	-3279
▁甲状腺右叶中下实性肿物	-3280
左锁上可见多发低回声淋巴结	-3281
最深	-3282
左叶下极	-3283
可见多个肿大淋巴结影	-3284
肝内可见片状低回声区	-3285
右叶最大肿物	-3286
▁肝脏形态大小正常	-3287
考虑转移瘤甲状腺左右叶多发结节	-3288
0.9×0.3	-3289
壁薄	-3290
:0.75	-3291
右下颈多发淋巴结	-3292
0.89	-3293
建议抗炎	-3294
PW	-3295
紧贴	-3296
0.87	-3297
中上颈部	-3298
▁上颈颈前	-3299
考虑腺瘤合并结节性甲状腺肿	-3300
甲状腺外院术后	-3301
▁右侧腮腺实性肿物	-3302
及下极	-3303
管扩张	-3304
▁甲状腺左右叶多发小结节	-3305
×1.7×1.5	-3306
三尖瓣反流峰值流速约	-3307
位于肝右后叶	-3308
转移瘤待除外	-3309
考虑来自卵巢	-3310
结核	-3311
双侧附件区	-3312
胆总管内径	-3313
下缘	-3314
大小基本正常	-3315
:1.1×0.9×0.8	-3316
×1.20	-3317
乳腺	-3318
区交界处	-3319
局限性增厚	-3320
▁盆腔扫查	-3321
及颏下	-3322
部分可见较丰富血流信号	-3323
×2.0×1.6	-3324
甲状腺左右叶回声粗糙	-3325
同性质实性结节	-3326
左肾盂	-3327
×0.15	-3328
×1.5×0.8	-3329
×1.21	-3330
右上腹	-3331
弧形	-3332
×8.	-3333
:1.4×1.2	-3334
类圆形	-3335
内透声尚可	-3336
皮髓质界清	-3337
上颈颈前正中	-3338
被膜平整	-3339
结甲液体吸收后	-3340
及小液性区	-3341
×1.6×0.9	-3342
×1.7×1.0	-3343
甲状腺左叶中部深层可见一	-3344
:0.72	-3345
呈中等回声	-3346
考虑混合瘤可能性大	-3347
双侧颌下腺未见明显肿物	-3348
机化	-3349
中下颈气管旁	-3350
双乳未见明显异常血流信号	-3351
0.88	-3352
甲状腺左叶可见	-3353
状叶	-3354
▁甲状腺右叶中部实性肿物	-3355
:0.74	-3356
×1.0×0.6	-3357
0.18	-3358
可探及动脉血流信号	-3359
:1.1×1.0×0.6	-3360
▁右锁上多发淋巴结	-3361
簇状	-3362
脂肪肝肝内多发囊肿	-3363
回声稍强	-3364
×1.23	-3365
:0.78	-3366
反应性增生	-3367
可见一淋巴结影	-3368
:1.2×1.1×0.8	-3369
:1.5×1.2	-3370
甲状腺右残叶回声欠均匀	-3371
×1	-3372
患者触及	-3373
较前变化不明显	-3374
厚约	-3375
▁颏下	-3376
胆囊炎	-3377
考虑结甲液体吸收后改变	-3378
无回声结节	-3379
位于肝内可见多个中强回声反射区	-3380
肝脏大小	-3381
左锁上可见多发淋巴结影	-3382
样病变	-3383
考虑为术后改变	-3384
双侧颈动脉	-3385
▁甲状腺左右残叶	-3386
部分可见粗大钙化	-3387
可见多发强回声钙化	-3388
甲状腺右叶肿物切除术后	-3389
:1.3×1.0×0.8	-3390
、5	-3391
内可见液性区	-3392
:1.2×0.4	-3393
呈均匀	-3394
考虑转移性甲状腺左右叶多发结节	-3395
:5.7	-3396
上中下颈部	-3397
考虑炎性甲状腺左右叶多发结节	-3398
▁甲状腺右叶肿物细针抽吸	-3399
房间隔	-3400
见一等回声区	-3401
)、	-3402
可见片状低回声区及强回声反射	-3403
远场衰减	-3404
×2.0×1.4	-3405
右颌下多发肿大淋巴结	-3406
壁异常	-3407
及室间隔	-3408
考虑腮腺内	-3409
1.7×0.8	-3410
局限炎症	-3411
连续完整	-3412
病理	-3413
房间隔及室间隔	-3414
房间隔及室间隔连续完整	-3415
4.7	-3416
符合淋巴类肿物治疗后改变	-3417
×1.8×1.1	-3418
建议抗炎治疗后复查	-3419
舌骨周围可见一囊性无回声区	-3420
宫壁回声欠均匀	-3421
:0.77	-3422
。。	-3423
子宫内膜厚度	-3424
1.9×0.8	-3425
多发扁平淋巴结	-3426
胆囊壁可见多发	-3427
腺体回声欠均匀	-3428
内下	-3429
可见范围	-3430
气管受	-3431
内见强回声小钙化	-3432
不一	-3433
▁肝右叶	-3434
部可见胃壁不规则增厚	-3435
0.6×0.2	-3436
形态轮廓欠清晰	-3437
×1.22	-3438
甲状腺左右叶稍增大	-3439
▁甲状腺右叶片状低回声区	-3440
双侧腋下及	-3441
1.4×0.8	-3442
▁甲状腺左叶肿物细针抽吸	-3443
深层内侧可见一	-3444
腺体内	-3445
甲状腺右叶可见一大小约	-3446
左侧附件区未见明显异常回声	-3447
甲状腺左叶可见多发实性肿物及结节	-3448
内可见小液性区	-3449
面部	-3450
手术史	-3451
:1.6×0.8	-3452
>1,	-3453
2.0×0.8	-3454
背侧可见一	-3455
×5.8	-3456
部分结节边界欠清	-3457
▁双颈部多发淋巴结	-3458
及下颈气管前	-3459
部分内可见点状强回声反射	-3460
肿物处	-3461
甲状腺左右叶稍饱满	-3462
右上颈可见多发低回声肿大淋巴结影	-3463
▁双	-3464
4.8	-3465
内未见血流信号	-3466
右颈多发实性肿物	-3467
甲状腺左叶可见一大小约	-3468
后壁回声稍强	-3469
:1.3×1.2	-3470
肝右前叶	-3471
:1.6×0.7	-3472
右颈后	-3473
1.6×0.5	-3474
▁双颈部淋巴结扫查	-3475
▁甲状腺左叶中部实性肿物	-3476
突起	-3477
:5.8	-3478
:0.76	-3479
超声造影	-3480
甲状腺右叶中下可见一大小约	-3481
上方可见一	-3482
伴彗星尾征	-3483
:1.2×0.9×0.6	-3484
该结节	-3485
0.90	-3486
剑突	-3487
▁甲状腺左叶多发小结节	-3488
▁甲状腺左右叶多发实性结节	-3489
0.8×0.8	-3490
2.1×0.7	-3491
:1.5×1.3	-3492
甲状腺右叶弥漫性增大	-3493
可见多个低回声肿大淋巴结	-3494
▁甲状腺左右叶片状低回声区	-3495
0.91	-3496
肝内多发	-3497
于右乳	-3498
:1.2×1.1×0.7	-3499
低回声小结节	-3500
肝脏大小正常	-3501
1.8×0.8	-3502
:1.6×1.2	-3503
另可见多发实性	-3504
中颈气管前	-3505
及强回声结晶	-3506
:1.6×1.1	-3507
:1.1×0.8×0.7	-3508
甲状腺左右叶及峡部弥漫性	-3509
少量积液	-3510
:1.2×1.0×0.6	-3511
肝实质回声分布均匀	-3512
结节内及	-3513
1.4×0.9	-3514
实质分布均匀	-3515
淋巴类肿物待除外	-3516
浅层可见一同性质结节	-3517
▁甲状腺左右叶囊性结节	-3518
位于肝右叶可见一个大小	-3519
甲状腺右叶可见多发	-3520
近气管	-3521
×1.6×1.5	-3522
▁左中下颈	-3523
甲状腺右叶多发小结节	-3524
×5.7	-3525
沉积	-3526
胆囊大小正常	-3527
包裹	-3528
甲状腺右叶肿物细针抽吸	-3529
▁甲状腺左叶近下极实性结节	-3530
双侧中上颈	-3531
▁甲状腺左残叶回声不均匀	-3532
位于右肾可见多发囊性无回声区	-3533
腹水	-3534
×1.24	-3535
甲状腺左叶下方	-3536
×1.9×1.2	-3537
▁脂肪肝颈部未见明显肿物	-3538
及左锁上	-3539
小低回声区	-3540
舌骨周围可见一大小约	-3541
双上颈可见多发低回声淋巴结影	-3542
微小癌待除外	-3543
▁甲状腺右叶近下极	-3544
肉芽	-3545
:1.6×1.4	-3546
肉芽肿	-3547
甲状腺左残叶大小	-3548
胸腔积液	-3549
及粗大钙化	-3550
位于左肾中上可见大小为	-3551
▁甲状腺右叶上极实性肿物	-3552
多个	-3553
不均质	-3554
内回声均匀	-3555
多发实性肿物及结节	-3556
×1.26	-3557
颌下腺内可见一	-3558
甲状腺左叶上下极	-3559
剑突下	-3560
:1.6×0.6	-3561
0.92	-3562
周围可见低回声晕环	-3563
:1.3×1.0×0.7	-3564
欠满意	-3565
1.5×0.8	-3566
×1.9×1.6	-3567
×2.1×1.6	-3568
最大直径约	-3569
偏左可见一	-3570
可见两处	-3571
×1.25	-3572
肿物伴钙化	-3573
部分内可见强回声粗大钙化	-3574
少许	-3575
1.6×0.8	-3576
颈内动脉	-3577
甲状腺左叶多发	-3578
子宫萎缩	-3579
▁肝内多发占位性病变	-3580
双上颈及	-3581
▁肝左叶囊肿	-3582
点状中等回声	-3583
:0.20	-3584
囊壁可见多发	-3585
部分血流信号丰富	-3586
▁右下颈气管旁多发淋巴结	-3587
0.93	-3588
偏右可见一	-3589
脂肪肝盆腔未见明显肿物	-3590
%,	-3591
实质回声呈均匀	-3592
上颈颈前正中舌骨周围可见一大小约	-3593
最大者	-3594
上腹腹主动脉	-3595
显著	-3596
×2.1×1.5	-3597
可见多发强回声反射	-3598
实质回声呈均匀点状中等回声	-3599
最大位于左侧	-3600
甲状腺左叶肿物切除术后	-3601
2.0×0.6	-3602
点状强回声钙化	-3603
坏死	-3604
右叶上极	-3605
短期复查	-3606
右锁上多发淋巴结	-3607
甲状腺左叶下极下方	-3608
甲状腺左叶中部浅层可见一	-3609
中下颈部	-3610
甲状腺左右叶上中下及峡叶	-3611
▁甲状腺左叶上极实性肿物	-3612
▁上颈颈前含液性肿物	-3613
可见多个中强回声反射区	-3614
腺体中部可见一	-3615
:0.79	-3616
:1.6×1.3	-3617
×1.8×1.6	-3618
考虑转移性甲状腺	-3619
左腮腺	-3620
未见残存腺体	-3621
后方可见	-3622
最大肿物	-3623
肝右后叶	-3624
甲状腺右叶中部浅层可见一	-3625
▁甲状腺右叶中部实性结节伴钙化	-3626
下颈部多发肿大淋巴结	-3627
余未见明显肿大及异常回声淋巴结影	-3628
=5	-3629
较小	-3630
考虑炎性病变	-3631
▁双颈部多发实性肿物	-3632
光带	-3633
:0.82	-3634
位于右中颈	-3635
甲状腺左叶中下可见一大小约	-3636
性增厚	-3637
位于右上中下颈	-3638
周边未见明显血流信号	-3639
×2.0×1.3	-3640
包裹性	-3641
部分呈	-3642
0.95	-3643
失常	-3644
▁下颈气管前	-3645
亚甲	-3646
亚甲炎	-3647
及左下颈	-3648
实性小结节	-3649
钙化结节	-3650
偏左相当于	-3651
位于肝左叶可见一个大小	-3652
0.94	-3653
▁甲状腺峡叶实性结节伴钙化	-3654
甲状腺左右叶可见多发小结节	-3655
中颈部	-3656
甲状腺左右叶中上	-3657
水肿	-3658
位于中上	-3659
伴多发结节	-3660
散在小钙化	-3661
肝内可见多发	-3662
位于左肾中下可见大小为	-3663
内外侧	-3664
左叶最大肿物	-3665
考虑结甲伴钙化	-3666
甲状腺左叶肿物细针抽吸	-3667
左颌下可见多发低回声肿大淋巴结影	-3668
大腿	-3669
弱回声光点	-3670
周边可见粗大钙化	-3671
甲状腺右叶片状低回声区	-3672
包裹性积液	-3673
1.2×0.4	-3674
部可见壁不规则增厚	-3675
斑块样钙化	-3676
伴多发	-3677
左侧上中下颈	-3678
周边及内部可见血流信号	-3679
部分形状不规则	-3680
:1.4×1.3	-3681
右乳未见明显肿物影	-3682
可见大小不等的强回声钙化	-3683
充满	-3684
右侧肾上腺	-3685
一步	-3686
腹盆腔	-3687
术区低回声区	-3688
进一步	-3689
结甲纤维化钙化	-3690
扁平状肿大淋巴结影	-3691
可见弥漫	-3692
:1.5×0.5	-3693
结甲待除外	-3694
(34-55	-3695
结节内血流信号不丰富	-3696
位于右肾中上可见大小为	-3697
:1.2×0.9×0.8	-3698
1.7×0.5	-3699
内可见点状强回声结晶	-3700
甲状腺左右叶囊性结节	-3701
双侧涎腺及颈部淋巴结扫查	-3702
左上颈可见多发低回声肿大淋巴结影	-3703
输尿管	-3704
双腋下未见明显肿大淋巴结	-3705
下颌	-3706
直肠	-3707
恶变待除外	-3708
左锁上淋巴结	-3709
考虑炎性淋巴结可能性大	-3710
:1.3×1.1×0.7	-3711
射频治疗后改变	-3712
▁肝右叶囊肿	-3713
深层外侧可见一	-3714
肝被膜表面平滑	-3715
浅层被膜下可见一	-3716
×1.27	-3717
甲状腺右叶近下极实性结节	-3718
转移性淋巴结	-3719
:5.9	-3720
实质回声稍增强	-3721
观察甲状腺左右叶多发结节	-3722
结节内及周边未见明显血流信号	-3723
累及	-3724
左下颈淋巴结	-3725
双侧颌下腺回声不均匀	-3726
▁右锁上多发肿大淋巴结	-3727
:0.81	-3728
0.17	-3729
气管旁可见一	-3730
内可见多发低回声结节	-3731
余颈部未见明显肿大及异常淋巴结影	-3732
右侧附件区未见明显异常回声	-3733
接近	-3734
脾脏大小	-3735
甲状腺左叶弥漫性增大	-3736
甲状腺左叶实性肿物伴钙化	-3737
进一步检查	-3738
右叶最大结节	-3739
甲状腺右叶实性肿物伴钙化	-3740
甲状腺体积	-3741
位于前壁可见	-3742
×5.9	-3743
相当于左	-3744
可见片状回声减低区伴强回声反射	-3745
0.96	-3746
:1.7×1.4	-3747
甲状腺左叶多发小结节	-3748
:1.7×1.3	-3749
剑突下偏左相当于	-3750
×1.28	-3751
位于外上	-3752
左颈多发实性肿物	-3753
胰体	-3754
或结甲结节	-3755
▁甲状腺左叶下极实性结节伴钙化	-3756
右上颈部	-3757
右肾形态大小正常	-3758
右叶实性结节	-3759
=7	-3760
右肾盂	-3761
肾之间	-3762
回声致密	-3763
淋巴结部扫查	-3764
瘤体内可见少许血流信号	-3765
双侧颈淋巴结部扫查	-3766
位于双肾可见多发囊性无回声区	-3767
肠系	-3768
中低回声结节	-3769
观察上腹部未见明显肿物	-3770
扫及	-3771
▁颈前	-3772
未见明显实性	-3773
:0.80	-3774
甲状腺左右	-3775
可见多个囊性	-3776
左乳未见明显肿物影	-3777
中颈颈前	-3778
宫颈多发囊性病变	-3779
4.9	-3780
左颌下多发肿大淋巴结	-3781
双侧颌下腺及腮腺未见明显肿物	-3782
皮肤	-3783
右侧乳腺扫查	-3784
极低回声结节	-3785
:1.7×0.8	-3786
▁甲状腺左叶小结节	-3787
:0.84	-3788
:1.5×1.4	-3789
右腮腺	-3790
淋巴结核	-3791
形态未见明显异常	-3792
0.98	-3793
右下颈及右下颈气管旁	-3794
:0.19	-3795
胆囊旁	-3796
双颈多发肿大淋巴结	-3797
可见粗大强回声钙化	-3798
周边及内部可见丰富血流信号	-3799
脾门区	-3800
甲状腺右叶可见多发低回声结节	-3801
环状钙化	-3802
▁甲状腺左右叶实性肿物及结节	-3803
左上颈部	-3804
周边可见强回声钙化	-3805
子宫肌层可见点条状血流信号	-3806
于左乳	-3807
右侧腮腺术后	-3808
部分可见髓质	-3809
0.97	-3810
内部分	-3811
=6	-3812
滤泡性	-3813
位于右上颈	-3814
考虑腺淋巴瘤	-3815
内可见弱回声反射	-3816
▁双下颈	-3817
胆囊附壁胆固醇结晶	-3818
脾门部见一等回声区	-3819
2.2×0.7	-3820
:1.7×0.7	-3821
后方伴	-3822
▁胆囊多发息肉	-3823
:6.0	-3824
左叶中部	-3825
环绕血流信号	-3826
2.1×0.8	-3827
实性区	-3828
界不清楚	-3829
×1.0×1.0	-3830
▁双锁上多发淋巴结	-3831
×2.0×1.7	-3832
:0.86	-3833
:1.3×0.4	-3834
:0.85	-3835
定期复查肝内多发囊肿	-3836
左耳后	-3837
:1.4×1.1×0.8	-3838
甲状腺左叶回声尚均匀	-3839
内可见多发强回声小钙化	-3840
甲状腺右叶下极实性肿物	-3841
锥状叶	-3842
考虑占位	-3843
左叶中上	-3844
乳头状突起	-3845
右锁上可见多发低回声淋巴结影	-3846
胃镜	-3847
▁双侧	-3848
液性成分	-3849
×1.29	-3850
5.0	-3851
左叶上中下	-3852
颗粒	-3853
×1.30	-3854
膈上可见液性暗区	-3855
甲状腺右叶低回声区	-3856
部分周边可见血流信号	-3857
下肢深静脉	-3858
可见多个潜在小低回声区	-3859
:1.7×0.6	-3860
:1.4×1.2×0.9	-3861
内可见点状钙化	-3862
宫底	-3863
双下颈气管周围	-3864
双腋下可见多发低回声肿大淋巴结影	-3865
壁最厚	-3866
可见一直径	-3867
与前被膜关系密切	-3868
呈中强回声	-3869
0.4×0.5	-3870
甲状腺右叶中下可见	-3871
可疑转移性甲状腺左右叶多发结节	-3872
考虑术后	-3873
:0.83	-3874
×2.2×1.6	-3875
处可见	-3876
剑突下偏左相当于贲门	-3877
上腹未见明显肿物	-3878
倾向	-3879
:1.1×1.1	-3880
▁左颈部多发实性肿物	-3881
▁甲状腺左叶中下实性肿物	-3882
边界清晰	-3883
×1.32	-3884
:1.6×0.5	-3885
甲状腺左右叶中下可见多发实性结节	-3886
甲状腺左叶片状低回声区	-3887
▁左锁上淋巴结	-3888
位于左上颈	-3889
0.9×0.9	-3890
ET	-3891
2.1×0.6	-3892
胰腺及腹膜后扫查	-3893
内可见多发强回声团	-3894
囊性无回声结节	-3895
甲状腺右叶稍增大	-3896
游离	-3897
:1.7×1.2	-3898
建议结合甲功检查左下颈气管旁	-3899
▁甲状腺右叶中下实性结节伴钙化	-3900
:1.2×1.0×0.9	-3901
:1.4×1.2×0.8	-3902
前列腺内	-3903
▁甲状腺左叶片状低回声区	-3904
甲状腺左右叶多发实性结节	-3905
蛋壳	-3906
2、3	-3907
▁左乳	-3908
可见细小	-3909
肝内光点分布	-3910
胰腺大小形态正常	-3911
:1.3×1.1×0.9	-3912
(3、4、6	-3913
▁右颈部多发实性肿物	-3914
术区扫查	-3915
位于左上中下颈	-3916
甲状腺左右叶回声均匀	-3917
横比	-3918
内可见散在	-3919
:1.7×0.9	-3920
1.01	-3921
最大范围	-3922
×2.1×1.7	-3923
▁甲状腺峡叶偏右实性结节	-3924
上肢	-3925
0.5×0.6	-3926
:1.8×1.4	-3927
甲状腺左叶可见多发	-3928
多发扁平状肿大淋巴结	-3929
▁甲状腺峡叶偏左实性结节	-3930
MET	-3931
导管无扩张	-3932
纵横比	-3933
可见点状	-3934
宫颈可见一	-3935
内可见强回声分隔	-3936
▁甲状腺左叶近上极实性结节	-3937
形态失常	-3938
×2.1×1.4	-3939
内可见一大小	-3940
肿大伴	-3941
中高回声	-3942
囊壁增厚	-3943
肿物影	-3944
血管走行	-3945
腺体深层可见一	-3946
可见多发实性低回声区	-3947
甲状腺右左叶	-3948
甲状腺峡叶偏左可见一大小	-3949
似可见强回声反射	-3950
光带分离	-3951
右上颈多发肿大淋巴结	-3952
颏下可见多发低回声肿大淋巴结影	-3953
0.99	-3954
近深层	-3955
肝肾之间	-3956
×1.31	-3957
部分可见点状血流信号	-3958
双侧卵巢可见	-3959
腔内可见多个强回声团伴声影	-3960
突破	-3961
部分饱满	-3962
可见多发低回声小结节	-3963
×2.2×1.7	-3964
甲状腺峡叶偏右可见一大小	-3965
尚清晰	-3966
甲状腺形态	-3967
1.5×0.9	-3968
右乳未见明显肿物	-3969
20	-3970
尚光滑	-3971
锁骨下静脉	-3972
可见多发片状	-3973
甲状腺峡叶偏左可见一大小约	-3974
相当于右	-3975
右下颈淋巴结	-3976
▁双颌下多发肿大淋巴结	-3977
腹壁	-3978
建议查	-3979
较前无变化	-3980
可见两个低回声结节	-3981
▁右乳	-3982
脾脏大小形态正常	-3983
可见一低回声反射区	-3984
扁平状淋巴结	-3985
肌层回声均匀	-3986
贲门及腹膜后扫查	-3987
甲状腺左叶实质回声粗糙	-3988
右肾占位性病变	-3989
▁甲状腺右残叶回声不均匀	-3990
变形	-3991
内膜线	-3992
囊性增生	-3993
部分内可见液性区	-3994
较饱满	-3995
伴机化	-3996
肝内部分	-3997
颈外动脉	-3998
2.2×0.8	-3999
双锁上可见多发低回声反射区	-4000
:9.	-4001
肝静脉变细	-4002
深层可见一同性质结节	-4003
未见实质	-4004
内可见条形血流信号	-4005
×6.0	-4006
左侧腮腺术后	-4007
甲状腺右叶上下	-4008
:1.3×1.2×0.9	-4009
甲状腺右叶可见多发小结节	-4010
▁甲状腺右叶近上极实性结节	-4011
▁考虑	-4012
0.3×0.4	-4013
:6.2	-4014
甲状腺峡叶偏右可见一大小约	-4015
或乳头状突起	-4016
肿物挤压	-4017
=34	-4018
右耳后	-4019
内可见分隔	-4020
点状强回声附壁伴	-4021
肝内实质回声稍增强	-4022
复发	-4023
气管周围	-4024
未见实质光团	-4025
未见实质光团或乳头状突起	-4026
甲状腺右叶中下深层可见一	-4027
及结节伴钙化	-4028
=33	-4029
:6.1	-4030
×2.2×1.5	-4031
左肾形态大小正常	-4032
?)	-4033
及腹膜后	-4034
右叶结节	-4035
甲状腺左叶可见多发低回声结节	-4036
1.8×0.5	-4037
甲状腺右叶回声尚均匀	-4038
×2.2×1.8	-4039
外侧缘	-4040
内膜线居中	-4041
:1.2×1.1×0.9	-4042
有声影	-4043
甲状腺峡叶可见一大小约	-4044
胆囊未探及	-4045
浅层可见一实性肿物	-4046
=35	-4047
▁超声测量	-4048
考虑炎性包块	-4049
伴周围多发肿大淋巴结	-4050
位于上腹部剑突下偏左相当于贲门	-4051
×1.35	-4052
▁左中上颈	-4053
1.3×0.4	-4054
:1.0×0.3	-4055
▁右中下颈	-4056
建议结合甲功检查双下颈气管旁	-4057
左下颈可见一	-4058
5.1	-4059
左侧乳腺扫查	-4060
腺体层	-4061
不规则低回声区	-4062
甲状腺左叶低回声区	-4063
×1.33	-4064
内可见多发片状回声减低区	-4065
内实性肿物	-4066
上腹胀气明显	-4067
状强回声钙化	-4068
囊性成分吸收后改变	-4069
分叉	-4070
×1.34	-4071
×1.7×1.6	-4072
余肝脏	-4073
后方伴有声影	-4074
:1.7×1.1	-4075
位于右肾中下可见大小为	-4076
×2.3×1.7	-4077
▁甲状腺左残叶实性结节	-4078
射频消融	-4079
气体回声	-4080
:0.87	-4081
可见大小约	-4082
肝内部分血管走行	-4083
呈强回声	-4084
:1.8×1.5	-4085
1.6×0.9	-4086
▁甲状腺右叶小结节	-4087
弯曲	-4088
左侧颈	-4089
周围可见	-4090
▁左下颈多发肿大淋巴结	-4091
内可见血流信号	-4092
可疑转移性甲状腺	-4093
可见片状低回声	-4094
可见一个中低回声反射区	-4095
上述	-4096
定期复查胆囊多发息肉	-4097
钙乳	-4098
肝内部分血管走行变形	-4099
瘤体内可见点状血流信号	-4100
部分术后	-4101
右侧上中下颈	-4102
左上颈多发肿大淋巴结	-4103
胆囊壁可见多发等回声区	-4104
:0.95	-4105
:1.3×1.2×0.8	-4106
或结节	-4107
▁左颈部多发淋巴结	-4108
与周围	-4109
甲状腺左右叶稍小	-4110
:1.0×0.9×0.6	-4111
囊性结节内可见强回声结晶	-4112
可见小	-4113
深层实性结节	-4114
:1.1×1.1×0.7	-4115
胆管	-4116
定期复查脂肪肝	-4117
左颈多发淋巴结	-4118
门静脉未见扩张	-4119
▁甲状腺左叶中部实性结节伴钙化	-4120
肠管	-4121
及中下	-4122
右下颈部	-4123
请结合其他检查	-4124
甲状腺左叶下极可见一大小	-4125
部分结节周边可见血流信号	-4126
左肾中上	-4127
双颌下腺及	-4128
考虑甲状腺	-4129
来自甲状腺	-4130
余实质回声均匀	-4131
建议结合其他检查	-4132
可能大	-4133
良性病变	-4134
×2.3×1.6	-4135
及点状强回声	-4136
建议短期复查	-4137
:1.8×1.3	-4138
网膜	-4139
:0.89	-4140
双锁上多发淋巴结	-4141
性囊肿	-4142
1.04	-4143
部分内可见钙化	-4144
左锁区	-4145
子宫水平	-4146
×1.9×1.1	-4147
中层可见一大小约	-4148
:1.4×1.1×0.9	-4149
甲状腺左残叶回声均匀	-4150
考虑炎性可能性大观察	-4151
性肿物	-4152
可见多发扁平状淋巴结影	-4153
双侧颈总动脉	-4154
甲状腺左叶稍增大	-4155
余颈部未见明显肿大淋巴结影	-4156
可见多发低回声扁平状淋巴结影	-4157
混合回声	-4158
:0.4×0.5	-4159
×1.9×1.7	-4160
回声稍减低	-4161
左肾占位性病变	-4162
部分转移性待除外	-4163
实性及囊实性肿物及结节	-4164
双乳多发低回声结节	-4165
定期复查颈部未见明显肿物	-4166
:1、	-4167
术区可见	-4168
考虑良性结节	-4169
:1.8×0.7	-4170
右侧腮腺实性肿物	-4171
可见强回声钙化及结晶	-4172
甲亢	-4173
等回声实性结节	-4174
部分结节可见周边血流信号	-4175
肌壁间可见多个低回声反射区	-4176
位于后壁可见	-4177
考虑炎性甲状腺回声不均匀	-4178
1.02	-4179
双腋下多发肿大淋巴结	-4180
甲状腺峡叶偏左实性结节	-4181
右侧可见	-4182
×1.37	-4183
血流不丰富	-4184
右侧卵巢	-4185
:1.7×1.0	-4186
本次	-4187
壁薄光滑	-4188
左侧可见	-4189
:0.88	-4190
浅深层可见一	-4191
脂区	-4192
左肾中部	-4193
位于左中颈	-4194
左叶最大结节	-4195
:1.8×1.2	-4196
可见潜在低回声区	-4197
)。	-4198
宽约	-4199
子宫内膜厚度约	-4200
:1.7×1.5	-4201
考虑炎症可能性大	-4202
内可见多发强回声反射	-4203
甲状腺峡叶可见一大小	-4204
×2.3×1.8	-4205
乳晕	-4206
甲状腺实质	-4207
及腔静脉周围	-4208
余颈部未见明显异常	-4209
×1.36	-4210
:0.5×0.6	-4211
▁甲状腺左叶近下极	-4212
左肾结石	-4213
部可见一	-4214
2.3×0.7	-4215
甲状腺右残叶大小	-4216
=36	-4217
:6.3	-4218
包膜不光滑	-4219
深层可见一实性肿物	-4220
甲状腺左叶下极可见	-4221
右颈多发淋巴结	-4222
×1.8×1.0	-4223
=32	-4224
喉镜检查	-4225
异常回声区	-4226
:1.8×0.6	-4227
甲状腺右叶中上可见多发实性结节	-4228
回声相似实性结节	-4229
部分区域	-4230
内部回声正常	-4231
多发小淋巴结	-4232
右颈部多发实性肿物	-4233
:0.91	-4234
:0.93	-4235
▁右下颈多发淋巴结	-4236
周边可见较丰富血流信号	-4237
左下颈可见多发低回声淋巴结影	-4238
表面及	-4239
考虑来自口底	-4240
囊实性及囊性结节	-4241
定期复查盆腔未见明显肿物	-4242
右侧颈	-4243
软组织增厚	-4244
左残叶回声不均匀	-4245
扫查不满意	-4246
肝右叶可见一大小约	-4247
=30	-4248
低脂区	-4249
局部甲状腺被膜	-4250
:1.9×1.4	-4251
×2.1×1.8	-4252
甲状腺左右叶及峡部饱满	-4253
双锁上可见多发低回声淋巴结影	-4254
肝右叶可见多发	-4255
▁双锁上多发肿大淋巴结	-4256
肝右叶可见一囊性无回声区	-4257
1.9×0.9	-4258
部分可见血流信号	-4259
▁甲状腺左残叶弥漫性病变	-4260
1.03	-4261
:1.8×0.8	-4262
部分内可见大小不等钙化	-4263
左下颈肿大淋巴结	-4264
甲状腺右叶中部可见一大小约	-4265
×6.1	-4266
考虑局限性炎症	-4267
:1.8×0.9	-4268
×2.0×1.2	-4269
双颈部多发实性肿物	-4270
甲状腺实质回声不均匀	-4271
甲状腺左叶中部可见一大小约	-4272
5.2	-4273
▁左下颈淋巴结	-4274
:1.3×1.0×0.9	-4275
回声尚均	-4276
似可见小钙化	-4277
2.3×0.8	-4278
:1.9×1.5	-4279
左颈多发肿大淋巴结	-4280
甲状腺右叶下极可见	-4281
双颌下及	-4282
右肾中部	-4283
膀胱充盈可	-4284
双侧下颈气管旁	-4285
▁甲状腺右残叶实性结节	-4286
右叶中下可见多发实性及囊实性结节	-4287
胀气明显	-4288
部分可见丰富血流信号	-4289
肝内多发囊肿胆囊多发息肉	-4290
滤泡性肿瘤	-4291
1.8×0.9	-4292
▁甲状腺峡部	-4293
各可见一低回声结节	-4294
未充盈	-4295
甲状腺右叶实质回声粗糙	-4296
▁左锁上多发实性肿物	-4297
右锁上可见多发低回声区	-4298
切口	-4299
泥沙样	-4300
实性等回声结节	-4301
颗粒状	-4302
0.3×0.1	-4303
甲状腺左叶小结节	-4304
所示	-4305
平卧位	-4306
×0.14	-4307
中等回声区	-4308
宫体表面及	-4309
:1.5×1.2×0.9	-4310
甲状腺左叶近下极实性结节	-4311
甲状腺左右叶及峡叶多发肿物及结节	-4312
多支肌间静脉	-4313
1.7×0.9	-4314
×2.0×1.8	-4315
甲状腺右左叶回声均匀	-4316
考虑结甲伴钙化可能性大	-4317
肝功	-4318
著变	-4319
大小分别约	-4320
左肾囊肿颈部未见明显肿物	-4321
潜在结节	-4322
浅层实性结节	-4323
▁甲状腺右叶双发	-4324
:0.3×0.4	-4325
可见少许强回声髓质	-4326
肝静脉及门静脉血流减少	-4327
1.06	-4328
▁胆囊息肉	-4329
低弱回声肿物	-4330
×2.4×1.8	-4331
可见细小的	-4332
双侧腮腺内	-4333
1.2×1.0	-4334
考虑炎性或反应性增生	-4335
腹膜后多发肿大淋巴结	-4336
子宫水平位	-4337
▁右锁上多发实性肿物	-4338
大致	-4339
×1.39	-4340
颌下腺混合瘤	-4341
余颈部未见明显肿大及异常淋巴结	-4342
周边可见薄厚不一	-4343
:0.90	-4344
明显血流信号	-4345
甲状腺右叶小结节	-4346
甲状腺左叶及右残叶	-4347
中强回声反射区不伴声影	-4348
▁左下颈气管旁低回声结节	-4349
部分结节内可见点线状血流信号	-4350
×1.38	-4351
甲状旁腺腺瘤	-4352
右残叶回声不均匀	-4353
左侧颈部未见明显肿大淋巴结	-4354
区可见	-4355
浅层近峡叶	-4356
部分可见液性区	-4357
憩室	-4358
混合回声区	-4359
游离液性暗区	-4360
左肾囊肿盆腔未见明显肿物	-4361
腘静脉及胫后静脉管壁光滑	-4362
腮腺及颌下腺未见明显异常	-4363
均质	-4364
甲减	-4365
右上腹肝肾之间	-4366
上臂	-4367
较前无著变	-4368
部分血流信号稍丰富	-4369
定期复查甲状腺左右叶多发结节	-4370
部分可疑转移性	-4371
颈部未见明显肿大淋巴结	-4372
左颈前	-4373
可见一点状强回声附壁伴	-4374
:1.0×0.8×0.6	-4375
区近	-4376
可见一范围约	-4377
双乳腺体稍饱满	-4378
:0.6×0.7	-4379
可见细小的无回声	-4380
:1.1×0.8×0.5	-4381
=37	-4382
与气管	-4383
:6.4	-4384
:1.2×0.8×0.6	-4385
▁甲状腺右叶中上实性肿物	-4386
密切观察甲状腺左右叶多发结节	-4387
大致正常	-4388
左侧腮腺实性肿物	-4389
甲状腺右叶下极深层可见一	-4390
外院切除术后	-4391
=31	-4392
等回声团	-4393
▁右下颈淋巴结	-4394
浅层可见片状低回声区	-4395
1.08	-4396
×1.40	-4397
×1.7×0.9	-4398
:0.92	-4399
1.4×0.4	-4400
×2.2×1.4	-4401
甲状腺峡叶偏右实性结节	-4402
中断	-4403
内可见大小不等强回声钙化	-4404
结甲伴钙化纤维化	-4405
:1.4×1.1×0.7	-4406
右叶为著	-4407
胆囊显示清晰	-4408
颌下实性肿物	-4409
▁甲状腺多发结节	-4410
实质损	-4411
高回声团	-4412
可见小块状钙化	-4413
双颌下可见多发肿大淋巴结影	-4414
:1.4×0.4	-4415
大小不等的	-4416
壁异常性增厚	-4417
×2.1×1.3	-4418
可见一个低回声区	-4419
:1.3×0.9×0.7	-4420
狭窄	-4421
腺叶	-4422
右下颈及	-4423
:1.2×1.2	-4424
甲状腺左叶中下可见	-4425
似可见点状钙化	-4426
可见强回声大钙化	-4427
考虑结甲伴纤维化钙化	-4428
腹主动脉周围未见明显肿大淋巴结	-4429
左颌下腺	-4430
前列腺内钙化灶	-4431
2.0×0.9	-4432
甲状腺右叶上下极	-4433
:1.0×0.9×0.7	-4434
×1.8×1.7	-4435
周边可见丰富血流信号	-4436
左侧颈内静脉	-4437
×2.3×1.5	-4438
右下颈多发肿大淋巴结	-4439
甲状腺左右叶形态饱满	-4440
口底囊肿	-4441
囊实性回声	-4442
内可见多发点状强回声	-4443
:1.1×1.0×0.9	-4444
极丰富	-4445
2.2×0.6	-4446
三个	-4447
神经源	-4448
泥沙样结石	-4449
:1.1×1.1×0.8	-4450
甲状腺左叶可见多发小结节	-4451
=38	-4452
甲状腺左右残叶回声不均匀	-4453
软骨	-4454
1.9×0.5	-4455
▁胃病变请结合	-4456
甲状腺右叶上极可见一大小约	-4457
位于肝右叶可见多个中强回声反射区	-4458
大小及结构正常未见明显占位性病变	-4459
▁腹腔	-4460
×1.42	-4461
可见多个淋巴结	-4462
甲状腺左右叶下极	-4463
肌腺	-4464
▁甲状腺及	-4465
1.1×1.0	-4466
实性低回声	-4467
考虑结甲结节	-4468
异位	-4469
紧邻气管	-4470
右侧颌下腺切除术后	-4471
左侧颌下腺切除术后	-4472
可见多个潜在低回声结节	-4473
▁甲状腺右叶双发实性结节伴钙化	-4474
肌腺症	-4475
局部恶变待除外	-4476
潜在低回声结节	-4477
:1.9×0.6	-4478
见多发低回声淋巴结	-4479
舌骨水平	-4480
可见多发潜在低回声区	-4481
膀胱未充盈	-4482
甲状腺左右叶缩小	-4483
脾门区等回声结节	-4484
右下颈气管旁多发肿大淋巴结	-4485
1.07	-4486
最大位于右侧	-4487
×2.4×1.9	-4488
▁甲状腺左叶双发	-4489
管影响	-4490
左肾下极	-4491
×1.43	-4492
门血流信号	-4493
×1.6×1.6	-4494
▁甲状腺左右叶多发片状低回声区	-4495
内回声尚均	-4496
观察脂肪肝	-4497
▁甲状腺弥漫性肿大	-4498
另可见多发实性结节	-4499
部分结节血流信号较丰富	-4500
背部	-4501
右叶中上可见多发实性	-4502
深度	-4503
结甲结节	-4504
:0.96	-4505
>1。5、	-4506
伴钙化结节	-4507
甲状腺腺体	-4508
甲状腺左右叶及峡叶增大	-4509
可见多支	-4510
内侧近峡叶可见一大小约	-4511
:1.4×1.2×1.0	-4512
右肾中上	-4513
腺体增生	-4514
:0.97	-4515
内可见低弱回声	-4516
左乳未见明显肿物	-4517
:1.3×1.3	-4518
▁双锁上多发实性肿物	-4519
甲状腺左叶上极可见一大小约	-4520
0.16	-4521
考虑口底囊肿	-4522
可见两个相邻实性结节	-4523
:1.2×0.8×0.7	-4524
甲状腺右叶下极可见一大小	-4525
:7	-4526
分叶	-4527
睾丸	-4528
无包膜	-4529
:1.3×1.0×0.6	-4530
1.3×1.0	-4531
▁胆囊多发结石	-4532
:1.7×0.5	-4533
请结合病史	-4534
右颌下腺	-4535
▁右中上颈	-4536
2.1×0.9	-4537
5.3	-4538
甲状腺右残叶下极	-4539
:1.1×0.9×0.5	-4540
1.05	-4541
×1.41	-4542
考虑炎性上颈颈前含液性肿物	-4543
×1.6×0.8	-4544
中层可见一实性结节	-4545
内可见点状强回声钙化	-4546
近胸骨上窝	-4547
▁肝左叶多发	-4548
建议治疗后复查	-4549
慢性炎症	-4550
1.0×0.3	-4551
胰尾	-4552
双颈多发实性肿物	-4553
位于肝内可见多发囊性无回声区	-4554
5.4	-4555
点状结晶	-4556
显示不满意	-4557
▁右锁上淋巴结	-4558
右颈多发肿大淋巴结	-4559
未见明显肿大及异常淋巴结影	-4560
▁肝脏	-4561
左侧卵巢	-4562
低弱回声包块	-4563
及下颈气管周围	-4564
:0.8×0.9	-4565
:1.6×1.5	-4566
▁非均匀性脂肪肝	-4567
内可见稍丰富血流信号	-4568
肝内实质回声分布均匀	-4569
腹主动脉及腔静脉周围	-4570
:1.2×1.2×0.8	-4571
:1.8×1.1	-4572
周边及内部可见少许血流信号	-4573
肝内实质分布均匀	-4574
甲状腺左叶下极实性肿物	-4575
略饱满	-4576
后方无声影	-4577
区最大	-4578
及右下颈	-4579
、5、6	-4580
位于子宫右侧可见	-4581
软组织回声不均匀	-4582
考虑射频治疗后改变	-4583
位于上腹部相当于胃窦	-4584
1.12	-4585
位于左乳外上	-4586
各瓣膜开闭良好	-4587
甲状腺左叶中上可见多发实性结节	-4588
胆囊泥沙样结石	-4589
甲状腺右叶中下极	-4590
右下颈气管旁及气管前	-4591
子宫体	-4592
:0.94	-4593
左右叶实质回声粗糙不均匀	-4594
)--	-4595
可见多发强回声光团影	-4596
左侧髂脉管区	-4597
前臂	-4598
及右	-4599
:0.7×0.8	-4600
:1.9×0.7	-4601
:1.5×1.3×0.9	-4602
甲状腺内血流信号大致正常	-4603
部分内可见强回声结晶及粗大钙化	-4604
喉部	-4605
肾扫查	-4606
(2、3	-4607
子宫颈回声均匀	-4608
胃病变显示不清	-4609
于右上腹肝肾之间	-4610
▁左下颈气管旁淋巴结	-4611
:1.4×1.0×0.8	-4612
以上	-4613
×6.2	-4614
右肾上极	-4615
似可见沙粒样钙化	-4616
液性成分吸收后改变	-4617
:1.5×1.2×0.8	-4618
甲状腺左叶中下深层可见一	-4619
肝左叶可见一囊性无回声区	-4620
▁甲状腺右叶上极实性结节伴钙化	-4621
×2.4×1.7	-4622
甲状腺缩小	-4623
2.4×0.8	-4624
部分可见少量血流信号	-4625
强弱	-4626
:0.99	-4627
可行穿刺活检	-4628
术后改变待除外	-4629
:1.2×1.1×0.6	-4630
=29	-4631
可见结晶	-4632
:1.9×0.8	-4633
颏下多发肿大淋巴结	-4634
甲状腺左右叶形态大小正常	-4635
较前次	-4636
右侧髂脉管区	-4637
双侧颌下腺回声减低	-4638
▁甲状腺左右叶实性肿物伴钙化	-4639
强化检查	-4640
患者所诉	-4641
可见多发点状钙化	-4642
似不连续	-4643
宫体增大	-4644
左肾中下	-4645
左肾多发	-4646
及异常回声	-4647
×2.2×1.9	-4648
似可见强回声钙化	-4649
呼吸	-4650
▁甲状腺右叶近上极	-4651
甲状腺右叶中下可见一大小	-4652
甲状腺左叶中上可见一大小约	-4653
位于肝左外叶可见一囊性无回声区	-4654
脾静脉	-4655
外院术后	-4656
甲状腺来源	-4657
后颈	-4658
:0.98	-4659
×2.3×1.9	-4660
位于子宫左侧可见	-4661
双腮腺未见明显肿物	-4662
甲状腺左叶中下可见一大小	-4663
×1.44	-4664
:1.4×1.3×0.9	-4665
上肢深静脉	-4666
内可见两个	-4667
1.4×1.0	-4668
▁甲状腺左右叶多发肿物	-4669
1.10	-4670
左中颈气管旁	-4671
左肾多发结石	-4672
建议超声造影	-4673
▁双侧乳腺扫查	-4674
:2.0×1.5	-4675
甲状腺左右叶回声稍粗糙	-4676
腹股沟未见明显肿大淋巴结	-4677
于右叶	-4678
:6.5	-4679
:2.0×0.7	-4680
▁甲状腺左叶近上极	-4681
占据	-4682
向左	-4683
左右叶及峡叶可见多发实性	-4684
定位	-4685
考虑囊性增生	-4686
腔内可见密集	-4687
甲状腺左叶回声粗糙	-4688
▁肝左叶多发占位性病变	-4689
紊乱	-4690
最厚约	-4691
食管憩室	-4692
及强回声小钙化	-4693
左颈部多发实性肿物	-4694
实质内	-4695
▁右下颈气管旁低回声结节	-4696
内可见强回声大小不等钙化	-4697
上颈前	-4698
可见点状强回声结晶	-4699
甲状腺右叶双发实性结节	-4700
:1.3×0.9×0.8	-4701
▁甲状腺右叶中上实性结节伴钙化	-4702
稍缩小	-4703
×6.3	-4704
:0.18	-4705
:1.9×0.9	-4706
甲状腺右叶中上可见一大小约	-4707
21	-4708
部分界不清	-4709
低回声结节影	-4710
各可见一囊性结节	-4711
可见多个肿大淋巴结	-4712
甲状腺右叶回声粗糙不均匀	-4713
▁甲状腺峡叶实性肿物伴钙化	-4714
腺淋巴瘤	-4715
区多发淋巴结	-4716
甲状旁腺关系密切	-4717
右肾囊肿盆腔未见明显肿物	-4718
左上颈可见一	-4719
:1.9×1.3	-4720
▁上腹部实性肿物	-4721
:1.3×1.2×0.7	-4722
1.00	-4723
左侧大小	-4724
位于气管前	-4725
同性质肿物	-4726
2.4×0.7	-4727
周边可见不规则	-4728
等回声实性肿物	-4729
甲状腺右叶下极下方	-4730
还可见一同性质结节	-4731
▁甲状腺左叶中上实性肿物	-4732
肝右叶多发囊肿	-4733
×2.5×1.9	-4734
定期复查肝右叶囊肿	-4735
=28	-4736
强光点	-4737
×1.48	-4738
可见多发低回声扁平状肿大淋巴结影	-4739
缺损	-4740
5.5	-4741
腔静脉右	-4742
0.6×0.7	-4743
▁双下颈气管旁	-4744
肝实质回声不均匀	-4745
▁甲状腺右叶结节伴钙化	-4746
包绕	-4747
呼吸时	-4748
左下颈及左锁上	-4749
甲状腺右残叶中下	-4750
可见多发扁平淋巴结影	-4751
各可见一个低回声结节	-4752
▁双上颈多发肿大淋巴结	-4753
环形	-4754
右颈前	-4755
相频谱	-4756
脾下极	-4757
1.15	-4758
可见移动	-4759
腹部扫查	-4760
可见淋巴结	-4761
甲状腺稍小	-4762
呼吸时相频谱	-4763
右锁上可见多发低回声淋巴结	-4764
1.11	-4765
甲状腺峡叶实性肿物	-4766
:1.5×1.2×1.0	-4767
甲状腺左右叶可见多个囊性结节	-4768
▁甲状腺左叶中下实性结节伴钙化	-4769
:1.8×1.0	-4770
:2.0×1.4	-4771
考虑腮腺内肿大淋巴结	-4772
中央	-4773
蛋壳样钙化	-4774
面颊	-4775
右小腿	-4776
位于宫底	-4777
外侧可见	-4778
紧贴气管	-4779
右上颈可见一	-4780
甲状腺外院切除术后	-4781
甲状腺左残叶实质回声减低	-4782
:3)	-4783
右侧腮腺内	-4784
性结节	-4785
双侧乳腺	-4786
实质损害	-4787
影像学检查	-4788
可见多个潜在中	-4789
:1.4×1.4	-4790
瘤体内未见血流信号	-4791
肝静脉及门静脉血流正常	-4792
考虑结甲伴纤维化钙化可能性大	-4793
喉镜	-4794
偏外侧可见一大小	-4795
可见点条形血流信号	-4796
甲状腺右叶中上可见多发实性	-4797
及强回声光点	-4798
胆囊囊壁毛糙	-4799
腺体中间可见一实性结节	-4800
较少	-4801
周边可见环形钙化	-4802
强回声反射伴声影	-4803
甲状腺左叶上中下及右叶中下	-4804
充盈缺损	-4805
右肾下极	-4806
肌层回声不均匀	-4807
考虑结甲囊性变	-4808
右侧颈部未见明显肿大淋巴结	-4809
×9.	-4810
随体位改变可见移动	-4811
考虑转移瘤甲状腺右叶多发结节	-4812
1.09	-4813
右上颈及	-4814
右侧大小	-4815
桥本病灶	-4816
甲状腺右叶内	-4817
右下颈及右锁上	-4818
▁右颈部多发淋巴结	-4819
残余	-4820
右肾囊肿颈部未见明显肿物	-4821
部分内可见强回声结晶及钙化	-4822
可见髓质	-4823
×2.4×1.6	-4824
▁甲状腺右叶低回声结节	-4825
----	-4826
呈囊实性	-4827
左乳内上	-4828
左叶上极	-4829
胆囊多发息肉样病变	-4830
:1.0×0.8×0.7	-4831
甲状腺左右叶内可见片状回声减低区	-4832
体表	-4833
周边回声增强	-4834
:1.8×0.5	-4835
内可见强回声光团	-4836
最厚处	-4837
囊性回声区	-4838
左侧最大约	-4839
可见多个大小不等低回声区	-4840
强回声分隔	-4841
▁心脏超声测量	-4842
实性及囊性结节	-4843
:1.9×1.2	-4844
于上颈颈前可见一	-4845
似可见点状强回声反射	-4846
甲状腺右叶下极浅层可见一	-4847
1.17	-4848
左肾可见多发囊性无回声区	-4849
×2.5×1.8	-4850
:1.01	-4851
×2.2×1.3	-4852
双上颈部多发肿大淋巴结	-4853
未见明显实性占位性病变	-4854
瘤体内未见明显血流信号	-4855
水深	-4856
肝左叶多发囊肿	-4857
:1.5×1.3×1.0	-4858
▁甲状腺右叶多发实性结节伴钙化	-4859
:1.02	-4860
×1.46	-4861
×2.4×2.0	-4862
胰管	-4863
2.2×0.9	-4864
处片状低回声区	-4865
腺体中层可见一	-4866
中心	-4867
分叶状	-4868
可见一等回声区	-4869
×2.5×1.7	-4870
1.5×1.0	-4871
腺体中间部位可见一	-4872
可见多发点状强回声钙化	-4873
):	-4874
:1.04	-4875
左下颈气管旁多发肿大淋巴结	-4876
×1.45	-4877
残叶回声不均匀	-4878
甲状腺右叶下方	-4879
考虑桥本或结甲结节	-4880
次复查	-4881
甲状腺左残叶下极	-4882
膈上未见明显积液	-4883
甲状腺回声粗糙不均匀	-4884
通过	-4885
5.6	-4886
1.13	-4887
▁双颌下	-4888
内侧浅层	-4889
▁甲状腺右叶下极实性肿物伴钙化	-4890
▁甲状腺左叶上极实性结节伴钙化	-4891
水深约	-4892
个低回声结节	-4893
可见淋巴结门血流信号	-4894
部分内可见强回声钙化及结晶	-4895
沉积层	-4896
腺体间	-4897
考虑结节性甲状腺肿合并桥本结节	-4898
考虑胆囊	-4899
左残叶大小	-4900
考虑良性病变	-4901
可随体位改变移动	-4902
甲状腺右叶中下实性肿物	-4903
:1.5×1.1×0.8	-4904
未见明显增厚	-4905
考虑炎性观察	-4906
未见节段性运动异常	-4907
:1.4×1.0×0.7	-4908
:1.6×1.3×1.0	-4909
考虑炎性或反应性可能性大	-4910
断续	-4911
肾区	-4912
:2.1×1.4	-4913
右叶中下可见多发实性结节	-4914
左室壁未见节段性运动异常	-4915
甲状腺实质回声欠均匀	-4916
实性等回声	-4917
小淋巴结影	-4918
右乳腺体不厚	-4919
胰腺回声均匀	-4920
部分为	-4921
淋巴管囊肿	-4922
:2.0×0.8	-4923
甲状腺左叶中下极	-4924
甲状腺左残叶实质回声粗糙不均匀	-4925
各一个	-4926
左腹股沟	-4927
:1.06	-4928
内侧近气管	-4929
盆腔少量积液	-4930
右锁上多发肿大淋巴结	-4931
甲状腺左叶回声粗糙不均匀	-4932
:2.1×1.5	-4933
右锁上可见多发低回声肿大淋巴结影	-4934
门静脉增宽	-4935
甲状腺左叶中下浅层可见一	-4936
脂肪肝肝左叶囊肿	-4937
内可见多个潜在低回声区	-4938
:5	-4939
清楚	-4940
起始	-4941
×6.5	-4942
:1.4×1.1×1.0	-4943
右叶厚	-4944
及右叶下极	-4945
少许血流信号	-4946
周边可见弧形钙化	-4947
:1.3×1.1×1.0	-4948
结甲可能性大	-4949
宫颈那勃氏囊肿	-4950
左乳低回声结节	-4951
肝内胆管未见扩张	-4952
消失	-4953
多发小钙化	-4954
双下颈气管周围多发淋巴结	-4955
可试行	-4956
×6.4	-4957
淋巴结炎	-4958
软组织内可见一	-4959
甲状腺右叶形态饱满	-4960
周围可见多个淋巴结影	-4961
可见多个实性及囊实性肿物	-4962
甲状腺右叶近上极实性结节	-4963
右肾中下	-4964
部分可见无回声区	-4965
可见多处片状低回声区	-4966
脾动静脉血流充盈良好	-4967
▁甲状腺左叶结节伴钙化	-4968
×2.6×2.0	-4969
0.15	-4970
:6.6	-4971
前列腺饱满	-4972
定期复查胆囊息肉	-4973
未见明显肿大及异常淋巴结	-4974
甲状腺右叶中下浅层可见一	-4975
甲状软骨	-4976
×1.47	-4977
右侧胸腔积液	-4978
宫颈囊性病变	-4979
大于	-4980
肠系膜增厚	-4981
右侧颈内静脉	-4982
甲状腺前被膜	-4983
×2.5×2.0	-4984
考虑桥本合并结甲	-4985
上颈颈前可见一囊性无回声区	-4986
结甲纤维化	-4987
甲状腺右叶区	-4988
伴周围多发淋巴结	-4989
建议穿刺活检	-4990
×2.1×1.9	-4991
可见多发片状及条索状低回声区	-4992
延伸	-4993
左侧腮腺内	-4994
双肾多发结石	-4995
右锁上淋巴结	-4996
背侧实性肿物	-4997
部分结节边界不清	-4998
轮廓不清	-4999
肝内回声均匀	-5000
×2.3×1.4	-5001
可见呼吸时相频谱	-5002
甲状腺左叶双发实性结节	-5003
双侧中下颈	-5004
高回声结节	-5005
2.0×0.5	-5006
内可见气体回声	-5007
考虑来自甲状腺	-5008
及锁上	-5009
可见粗大	-5010
颈部扫查	-5011
×1.49	-5012
射频治疗后	-5013
炎症待除外	-5014
双下颈气管旁及气管前	-5015
蛋白	-5016
左乳上方	-5017
后方可见声影	-5018
余肝脏实质回声均匀	-5019
考虑结节性甲状腺肿定期复查	-5020
裂囊肿	-5021
建议切检	-5022
位于下颈气管前	-5023
甲状腺右叶及峡部	-5024
甲状腺左右叶及峡部增大	-5025
及左	-5026
及胃	-5027
球蛋白	-5028
甲状腺球蛋白	-5029
×2.1×1.2	-5030
可见强回声钙化灶	-5031
内似可见点状强回声	-5032
可见多个潜在低回声区及	-5033
部分内部可见强回声结晶	-5034
患者诉	-5035
▁甲状腺右叶肿物	-5036
脂肪肝胆囊多发结石	-5037
考虑转移瘤上腹部未见明显肿物	-5038
沙砾样钙化	-5039
▁甲状腺左叶肿物	-5040
内可见多发实性肿物及结节	-5041
双侧腹股沟可见多发肿大淋巴结影	-5042
底部	-5043
可见少量液性暗区	-5044
三尖瓣反流峰值流速	-5045
未见异常肿大淋巴结影	-5046
部分内可见点状强回声结晶	-5047
一结节	-5048
内可见斑	-5049
:2.0×1.3	-5050
内可见强回声粗大钙化	-5051
甲状腺左叶下方可见一	-5052
其内未见明显占位性病变	-5053
考虑炎性可能性大甲状腺回声不均匀	-5054
可见多发强回声	-5055
囊实性低回声结节	-5056
:1.4×1.0×0.9	-5057
可见片状低回声区伴强回声反射	-5058
略粗糙	-5059
样强回声钙化	-5060
颗粒状高回声	-5061
2.3×0.9	-5062
考虑颌下腺混合瘤	-5063
部分内部	-5064
内可见多发强回声结晶	-5065
双侧颌下	-5066
甲状腺叶	-5067
颈部未见明显肿物盆腔未见明显肿物	-5068
周边可见环形	-5069
2.5×0.8	-5070
×1.9×1.8	-5071
可见粗大血流信号	-5072
×0.24×0.30	-5073
双上颈可见多发淋巴结影	-5074
可见低回声区及强回声反射	-5075
部分内可见较丰富血流信号	-5076
泥沙流	-5077
恶性不除外	-5078
甲状腺左右叶片状低回声区	-5079
内可见少许	-5080
:1.6×1.3×0.9	-5081
▁甲状腺左叶下极实性肿物伴钙化	-5082
0.7×0.8	-5083
:2.0×1.6	-5084
甲状腺球蛋白检测	-5085
:1.3×1.2×1.0	-5086
缓慢	-5087
肠道	-5088
体表定位	-5089
考虑淋巴瘤	-5090
外侧可见一低回声区	-5091
周边可见条形血流信号	-5092
窦部	-5093
未见具体	-5094
未见明显占位	-5095
甲状腺峡叶切除术后	-5096
考虑结节	-5097
左侧中下颈	-5098
位于右乳外上	-5099
双下颈多发淋巴结	-5100
:1.1×1.1×0.6	-5101
▁甲状腺左叶双发实性结节伴钙化	-5102
较前增大	-5103
腮腺内可见一	-5104
后被膜	-5105
及左残叶	-5106
右侧最大约	-5107
后方实性肿物	-5108
1.7×1.0	-5109
甲状腺右残叶回声均匀	-5110
考虑炎性肝内多发囊肿	-5111
×1.50	-5112
可见多发低回声实性结节	-5113
左小腿	-5114
1.16	-5115
各可见一低回声区	-5116
骨囊肿	-5117
宫腔积液	-5118
结节大小	-5119
可见周边及内部	-5120
与甲状旁腺关系密切	-5121
×0.30×0.35	-5122
宫内膜厚度	-5123
1.6×1.0	-5124
低弱回声反射区	-5125
:2.0×0.6	-5126
右叶中下可见一	-5127
:1.9×1.6	-5128
实质内可见强回声光团	-5129
:1.03	-5130
扁平肿大淋巴结	-5131
:1.9×1.0	-5132
颗粒状高回声沉积层	-5133
甲状腺左叶近上极实性结节	-5134
1.14	-5135
×2.6×1.9	-5136
:1.4×1.3×1.0	-5137
▁甲状腺右残叶弥漫性病变	-5138
甲状腺右叶可见多发囊实性结节	-5139
脾脏饱满	-5140
部分稍饱满	-5141
请结合其它检查	-5142
甲状腺左叶内血流信号不丰富	-5143
中上可见一	-5144
内可见范围约	-5145
1.5×0.4	-5146
位于左侧颌下腺内可见一	-5147
肝内可见多个低弱回声结节	-5148
甲状腺左右叶实质回声稍粗糙	-5149
相互	-5150
左肾上极	-5151
周边可见强回声小钙化	-5152
,6	-5153
腹部	-5154
内侧近峡部	-5155
左中下颈部	-5156
呈融合状生长	-5157
:2.1×1.6	-5158
脂肪肝胆囊多发息肉	-5159
:1.4×1.2×0.7	-5160
=40	-5161
软组织内	-5162
×2.6×1.8	-5163
周边可见薄厚不均	-5164
:1.6×1.2×0.9	-5165
减慢	-5166
=10	-5167
右乳低回声结节	-5168
各可见一个实性结节	-5169
距乳头	-5170
右乳上方	-5171
不规则增大	-5172
主动脉瓣反流	-5173
甲状腺右叶钙化灶	-5174
左腮腺未见明显肿物	-5175
×0.32×0.37	-5176
:1.2×1.2×0.9	-5177
中间可见一实性结节	-5178
可见多发实性低回声结节	-5179
位于肝右叶可见多个囊性无回声区	-5180
1.19	-5181
右残叶大小	-5182
片状强回声	-5183
▁右侧颌下腺	-5184
可见块状钙化	-5185
甲状腺左右叶可见多个实性	-5186
右中颈气管旁	-5187
:1.9×1.1	-5188
×2.4×1.5	-5189
甲状腺右叶回声粗糙	-5190
象限可见一	-5191
甲状腺左叶内	-5192
位于右侧颌下腺内可见一	-5193
不适	-5194
:2.0×1.7	-5195
:2.1×0.7	-5196
▁左下颈气管旁低回声区	-5197
偏心	-5198
个月	-5199
及点状钙化	-5200
双乳呈均匀	-5201
宫内膜不清	-5202
:1.5×0.4	-5203
:2.1×1.7	-5204
冰冻	-5205
巨大	-5206
宫腔线	-5207
:6.7	-5208
最厚壁约	-5209
观察甲状腺左叶多发结节	-5210
左叶厚	-5211
中强回声团	-5212
内可见钙化	-5213
左乳腺体不厚	-5214
可见两个相邻的	-5215
甲状腺左叶形态饱满	-5216
×0.26×0.31	-5217
外侧可见一同性质结节	-5218
脾脏厚	-5219
甲状腺右叶切除	-5220
考虑转移瘤甲状腺左叶多发结节	-5221
条状	-5222
部分符合	-5223
▁子宫多发肌瘤	-5224
×2.3×2.0	-5225
囊性回声结节	-5226
可见点状钙化及结晶	-5227
▁胃病变请结合胃镜检查	-5228
可见多发囊实性肿物及结节	-5229
右乳内上	-5230
右腹股沟	-5231
弥漫分布	-5232
囊液	-5233
肝多发囊肿	-5234
部分伴囊性变	-5235
考虑反应性增生	-5236
考虑肝实质损害	-5237
考虑肝癌肝硬化	-5238
×2.0×1.1	-5239
定期复查肝左叶囊肿	-5240
腔内扫及	-5241
双颈多发淋巴结	-5242
脂肪肝肝右叶囊肿	-5243
部分区域无法扫查	-5244
甲状腺左残叶多发结节	-5245
甲状腺右叶中部实性肿物	-5246
:1.6×1.4×1.0	-5247
本次扫查	-5248
颌下腺及右侧腮腺未见明显肿物	-5249
其周围	-5250
前胸壁	-5251
位于盆腔	-5252
腺体深层	-5253
:2.1×0.8	-5254
▁左下颈肿大淋巴结	-5255
位于上腹部相当于胃体	-5256
▁甲状腺左叶低回声结节	-5257
观察甲状腺右叶多发结节	-5258
:1.07	-5259
不典型结甲或	-5260
×0.28×0.32	-5261
:10	-5262
切术后	-5263
右耳下	-5264
▁双侧腮腺	-5265
▁左侧颌下腺	-5266
:2.0×0.9	-5267
内可见多发强回声钙化	-5268
双锁上可见多发低回声淋巴结	-5269
遮挡	-5270
肝右叶可见多个	-5271
×2.0×1.9	-5272
×0.28×0.35	-5273
甲状腺右残叶多发结节	-5274
皮样	-5275
腘窝	-5276
下颌骨	-5277
左肾盂积水	-5278
炎性病变待除外	-5279
区多发肿大淋巴结	-5280
内侧可见一实性结节	-5281
:1.1×0.8×0.8	-5282
似可见	-5283
:1.05	-5284
×1.51	-5285
下肢深静脉扫查	-5286
可见一实性结节	-5287
肝内光点分布粗糙	-5288
▁左锁上肿大淋巴结	-5289
×0.35×0.41	-5290
可见一中强回声反射区	-5291
后壁回声增强	-5292
结合胃镜检查	-5293
:2.2×1.5	-5294
内可见多发小钙化	-5295
×0.25×0.31	-5296
×0.27×0.33	-5297
×0.34×0.40	-5298
:9	-5299
×1.53	-5300
相当于左侧	-5301
后伴彗星尾征	-5302
2.3×0.6	-5303
:1.1×0.3	-5304
周边可见点状血流信号	-5305
:1.5×1.3×0.8	-5306
双锁上可见多发低回声肿大淋巴结影	-5307
炎性包块	-5308
较大结节	-5309
×2.2×2.0	-5310
甲状腺左叶及峡部	-5311
,2.	-5312
×0.26×0.33	-5313
:1.1×0.7×0.6	-5314
向右	-5315
主干内径	-5316
样强回声	-5317
可见一实性肿物	-5318
:1.8×1.6	-5319
×0.28×0.33	-5320
:1.4×1.3×0.8	-5321
=27	-5322
右肾结石	-5323
建议结合临床	-5324
2.5×0.7	-5325
考虑良性可能性大	-5326
肝右叶多发钙化灶	-5327
:1.3×0.9×0.6	-5328
▁甲状腺左叶中上实性结节伴钙化	-5329
双上中下颈可见多发肿大淋巴结影	-5330
▁甲状腺左右叶多发实性肿物及结节	-5331
II	-5332
轮廓欠清	-5333
块状强回声钙化	-5334
肝左叶可见一大小约	-5335
×0.26×0.30	-5336
部分结节可见血流信号	-5337
可见多发低回声扁平淋巴结影	-5338
考虑结节性甲状腺肿结节可能性大	-5339
内血流信号较少	-5340
左下颈部多发肿大淋巴结	-5341
:1.5×1.1×0.9	-5342
:6.8	-5343
×1.52	-5344
双侧乳腺未见明显肿物	-5345
左中下颈多发肿大淋巴结	-5346
:1.00	-5347
:1.9×1.7	-5348
甲状腺左叶下极深层可见一	-5349
▁甲状腺左右叶多发实性肿物	-5350
甲状腺右叶上中下可见多发囊性	-5351
几乎	-5352
皮样囊肿	-5353
×0.32×0.35	-5354
▁甲状腺左右叶低回声区	-5355
相连	-5356
:1.11	-5357
实性囊实性结节	-5358
伴多发肿物及结节	-5359
×0.29×0.35	-5360
:8	-5361
出血	-5362
1.3×1.1	-5363
甲状腺实质回声稍粗糙	-5364
浸润	-5365
射频治疗后第	-5366
甲状腺左残叶中下	-5367
外侧可见一实性结节	-5368
:1.0×1.0×0.7	-5369
可见多发低回声肿物及结节	-5370
甲状腺右叶中上深层可见一	-5371
右叶近下极	-5372
未见明显狭窄	-5373
1.6×0.4	-5374
肝周	-5375
×6.6	-5376
壁不光滑	-5377
局部扫查	-5378
:1.08	-5379
甲状腺右叶中部浅层	-5380
超声引导下穿刺活检	-5381
×0.30×0.37	-5382
甲状腺峡叶偏	-5383
及腹主动脉周围	-5384
考虑桥本氏甲状腺炎合并结甲	-5385
▁喉	-5386
5.7	-5387
颏下及	-5388
向左移位	-5389
肝内回声	-5390
×1.55	-5391
双乳多发结节	-5392
×0.28×0.34	-5393
甲状腺左叶中上浅层可见一	-5394
▁贲门	-5395
及右叶中上	-5396
腺体浅层可见一	-5397
×2.5×1.6	-5398
考虑甲状舌骨囊肿	-5399
×0.31×0.35	-5400
×0.32×0.36	-5401
双腋下可见多发肿大淋巴结影	-5402
稀疏	-5403
1.20	-5404
膀胱壁光滑	-5405
请结合手术史	-5406
转移性不除外	-5407
×0.26×0.32	-5408
▁右颌下多发肿大淋巴结	-5409
甲状腺左叶上极浅层可见一	-5410
建议结合甲功检查双颈部多发淋巴结	-5411
左旁	-5412
处皮下	-5413
体积缩小	-5414
可见簇状	-5415
可见两个实性肿物	-5416
考虑炎性可能性大脂肪肝	-5417
甲状腺右叶上中下可见多发囊性结节	-5418
生理	-5419
网格	-5420
最宽约	-5421
右下颈可见一	-5422
考虑食管憩室	-5423
与气管关系密切	-5424
请结合喉镜检查	-5425
×0.30×0.36	-5426
象限可见多发低回声结节	-5427
颌下腺及左侧腮腺未见明显肿物	-5428
以左叶	-5429
建议进一步检查	-5430
×1.8×1.8	-5431
×2.7×2.0	-5432
内侧近峡部可见一	-5433
×0.29×0.33	-5434
位于肝左叶可见多个囊性无回声区	-5435
非均质	-5436
于右乳外上	-5437
显示欠满意	-5438
×0.24×0.29	-5439
右颌下及	-5440
中等回声结节	-5441
甲状腺左叶下极下方可见一	-5442
建议结合甲功检查肝内多发囊肿	-5443
整个	-5444
舌管囊肿	-5445
相当于右侧	-5446
不均质回声区	-5447
:2.0×1.2	-5448
×0.33×0.38	-5449
:1.2×1.2×0.7	-5450
回声结节	-5451
较大范围约	-5452
1.8×1.0	-5453
右腮腺未见明显肿物	-5454
×0.24×0.28	-5455
右中下颈及右下颈气管旁	-5456
:1.2×0.9×0.9	-5457
较大约	-5458
散在钙化	-5459
×1.54	-5460
可见点条状血流信号	-5461
来自喉	-5462
考虑炎性甲状腺右叶多发结节	-5463
长径	-5464
=0.8	-5465
囊性弱回声区	-5466
×1.9×1.0	-5467
×0.27×0.32	-5468
术区软组织回声欠均匀	-5469
恶性待除外建议密切观察	-5470
甲状腺右残叶实质回声粗糙不均匀	-5471
,3、	-5472
3、6	-5473
左下颈颈外	-5474
纵横比大于	-5475
下肢股总静脉	-5476
▁左上颈实性肿物	-5477
考虑腺瘤合并结甲	-5478
×0.30×0.33	-5479
余心脏各腔室大小正常	-5480
内可见多发低回声反射区	-5481
:1.0×0.8×0.5	-5482
甲状腺左叶下极浅层可见一	-5483
瘤体内可见点线状血流信号	-5484
=0.8,	-5485
片状强回声区	-5486
2.4×0.9	-5487
:1.3×1.1×0.6	-5488
胆囊多发息肉盆腔未见明显肿物	-5489
其旁	-5490
欠光整	-5491
起始段	-5492
1.21	-5493
甲状腺大小正常	-5494
左侧腮腺切除术后	-5495
甲状腺左叶中部浅层	-5496
双侧腋下及双侧腹股沟	-5497
舌骨水平可见一囊性无回声区	-5498
关节	-5499
其一	-5500
偏右实性肿物	-5501
▁肝右叶钙化灶	-5502
考虑脂肪类肿物	-5503
:1.5×1.5	-5504
×0.25×0.32	-5505
×0.31×0.37	-5506
×0.32×0.38	-5507
×0.33×0.37	-5508
×0.33×0.39	-5509
×0.33×0.40	-5510
▁甲状腺右叶中下结节	-5511
:1.7×1.4×1.0	-5512
考虑转移性甲状腺回声不均匀	-5513
增高	-5514
)2.	-5515
5.8	-5516
双上肢深静脉	-5517
上颈颈前可见一	-5518
甲状腺右叶术区	-5519
×0.29×0.34	-5520
▁右下颈气管旁淋巴结	-5521
残端	-5522
腋静脉	-5523
1.18	-5524
外侧浅层	-5525
考虑亚甲炎	-5526
极可见大小为	-5527
1.4×1.1	-5528
患者自述肿物处	-5529
×2.7×1.9	-5530
较前未见明显改变	-5531
部分结节血流信号丰富	-5532
:1.6×1.2×1.0	-5533
左耳下	-5534
前方可见一	-5535
颈总动脉分叉	-5536
×1.8×0.9	-5537
双肾大小形态正常	-5538
左锁上肿大淋巴结	-5539
扁平肿大淋巴结影	-5540
×0.25×0.28	-5541
×0.31×0.38	-5542
▁左上颈多发肿大淋巴结	-5543
可见多个实性肿物及结节	-5544
▁甲状腺右叶多发实性肿物伴钙化	-5545
颈部未见明显肿大及异常回声淋巴结	-5546
点钟	-5547
左中上颈部	-5548
可见多发低回声及	-5549
及囊实性肿物或结节	-5550
甲状腺左叶回声不均	-5551
皮下脂肪层内可见一	-5552
前列腺增生颈部未见明显肿物	-5553
甲状腺左右叶上中下可见多发	-5554
考虑转移性甲状腺右叶多发结节	-5555
腹膜后及	-5556
此次未探及	-5557
大小结构正常	-5558
后方回声稍增强	-5559
甲状腺左叶切除	-5560
:2.0×1.0	-5561
部分结节呈低回声	-5562
考虑结甲液体吸收后	-5563
×0.36×0.40	-5564
甲状腺左叶中部实性肿物	-5565
1.23	-5566
可见密集的	-5567
右叶上中下可见多发实性结节	-5568
内部结构	-5569
峡部最大	-5570
近浅层可见一大小	-5571
部分内可见小钙化	-5572
×0.26×0.34	-5573
显示尚清	-5574
结合穿刺	-5575
×1.56	-5576
:2.1×0.9	-5577
建议结合强化检查	-5578
浅层近峡叶可见一大小	-5579
:1.5×1.4×1.0	-5580
甲状腺左叶可见多发囊实性结节	-5581
于左乳外上	-5582
壁异常增厚	-5583
:1.7×1.6	-5584
:1.0×0.9×0.8	-5585
左下颈气管旁可见多发低回声淋巴结	-5586
,。	-5587
较小者	-5588
囊液吸收后改变	-5589
×0.32×0.40	-5590
甲状腺左叶中下实性肿物	-5591
可见丰富	-5592
腺体层间	-5593
×1.58	-5594
形状较规则	-5595
偏左实性肿物	-5596
频谱形态正常	-5597
:1.9×0.5	-5598
内侧可见一同性质结节	-5599
考虑甲状旁腺囊肿可能性大	-5600
转移性待除外甲状腺左右叶多发结节	-5601
瘤栓	-5602
性生长	-5603
上腹网膜增厚	-5604
×0.28×0.36	-5605
:1.5×1.4×0.9	-5606
:6.9	-5607
1.0×1.0	-5608
未见残存腺体影	-5609
×0.23×0.28	-5610
×0.27×0.31	-5611
×0.33×0.35	-5612
可见散在强回声小钙化	-5613
;2.	-5614
▁右上颈实性肿物	-5615
右侧腮腺切除术后	-5616
×0.29×0.37	-5617
×0.31×0.34	-5618
位于肝	-5619
显著增大	-5620
甲状旁腺内可见一	-5621
×0.34×0.39	-5622
双锁上多发肿大淋巴结	-5623
周边及内部可见稍丰富血流信号	-5624
甲状腺右叶下极实性结节伴钙化	-5625
表皮样囊肿	-5626
×0.37×0.43	-5627
考虑来自甲状旁腺可能性大	-5628
最宽处	-5629
1.24	-5630
左颌下及	-5631
×1.57	-5632
1.2×1.1	-5633
部分回声不均匀	-5634
:0.2×0.3	-5635
×2.7×2.1	-5636
×0.29×0.36	-5637
甲状腺左右叶大小正常	-5638
各径	-5639
肝实质	-5640
边缘处	-5641
近被膜	-5642
1.26	-5643
前列腺各径	-5644
考虑反应性	-5645
待除外建议密切观察	-5646
内可见少许点状血流信号	-5647
内可见多个大小不等低回声区	-5648
小结晶	-5649
1.22	-5650
位于内上	-5651
多发异常	-5652
:1.10	-5653
及胸骨上窝	-5654
可见多发大小不等钙化	-5655
考虑局限性炎症可能性大	-5656
甲状腺右叶上极实性肿物	-5657
甲状腺右叶中上浅层可见一	-5658
极低回声实性结节	-5659
及异常回声淋巴结影	-5660
双侧颌下腺回声稍粗糙	-5661
彩色	-5662
腺体浅层	-5663
右腋下最大	-5664
肝左外叶可见一	-5665
:2.3×1.7	-5666
×2.5×2.1	-5667
左侧甲状旁腺囊肿	-5668
前列腺各径大小正常	-5669
上腹腹膜后多发肿大淋巴结	-5670
建议结合甲功检查右下颈气管旁	-5671
可见多发实性及囊实性低回声结节	-5672
轮廓清楚	-5673
▁双颈扫查	-5674
于体表定位	-5675
斑块状钙化	-5676
2.6×0.8	-5677
甲状腺弥漫性肿大	-5678
:1.0×1.0×0.6	-5679
:1.1×0.9×0.9	-5680
:1.5×1.3×1.1	-5681
锁骨上	-5682
双侧卵巢	-5683
考虑舌管囊肿	-5684
2.4×0.6	-5685
×2.8×2.0	-5686
甲状腺左叶中上可见	-5687
×0.23×0.27	-5688
:1.6×1.4×1.1	-5689
腔内扫及颗粒状高回声沉积层	-5690
减弱	-5691
双锁区	-5692
胆囊外	-5693
左侧中上颈	-5694
左腋下最大	-5695
未见具体肿物影	-5696
×0.36×0.41	-5697
甲状腺左叶中上深层可见一	-5698
观察甲状腺左右叶多发肿物及结节	-5699
ml	-5700
:11	-5701
低回声及	-5702
峡叶厚度	-5703
▁双侧颈部	-5704
×2.4×2.1	-5705
偏内侧可见一大小	-5706
前列腺大小基本正常	-5707
右叶上下	-5708
囊性为主	-5709
:1.12	-5710
内回声尚均匀	-5711
可见小钙化及结晶	-5712
肝右叶可见一大小	-5713
×0.35×0.40	-5714
考虑炎性甲状腺左叶多发结节	-5715
结肠	-5716
轻度扩张	-5717
最大位于下极	-5718
1.5×1.1	-5719
×0.37×0.41	-5720
1.1×0.9×0.7	-5721
:1.6×1.3×1.1	-5722
最大左	-5723
部分内见	-5724
的血流信号	-5725
其他影像学检查	-5726
甲状腺右叶中下浅层	-5727
考虑腺淋巴瘤可能性大	-5728
及右叶中下可见多发实性	-5729
:1.2×0.9×0.5	-5730
增高或	-5731
肱静脉	-5732
伴纤维化	-5733
区实性肿物	-5734
甲状腺右叶近峡部	-5735
中间位置可见一大小	-5736
位于肝右叶可见多发	-5737
考虑来自右侧肾上腺	-5738
×0.31×0.36	-5739
VS	-5740
流速无	-5741
鳃裂囊肿	-5742
:0.17	-5743
:1.09	-5744
前列腺囊肿	-5745
右叶前后径	-5746
增高或减慢	-5747
流速无增高或减慢	-5748
考虑桥本结节或结甲	-5749
内可见强回声钙化及结晶	-5750
部分可见点线状血流信号	-5751
建议结合甲功检查甲状腺左右叶结节	-5752
考虑慢性胆囊炎	-5753
甲状腺左右叶中部	-5754
甲状腺左叶未见明显肿物	-5755
:1.1×1.0×0.5	-5756
▁甲状腺左叶多发实性结节伴钙化	-5757
及部分	-5758
炎性或反应性	-5759
:1.8×1.7	-5760
不全	-5761
×2.6×2.1	-5762
×2.7×1.8	-5763
内可见粗大血流信号	-5764
甲状腺左叶内可见多发	-5765
考虑炎性病变可能性大	-5766
可见不规则	-5767
宫腔线不清晰	-5768
射频消融治疗	-5769
左肾切除术后	-5770
:2.1×1.3	-5771
:2.2×1.4	-5772
另可见一同性质结节	-5773
×0.25×0.30	-5774
×0.27×0.30	-5775
小息肉	-5776
相互融合	-5777
▁下颈颈前	-5778
囊内透声可	-5779
右肾多发结石	-5780
2.1×0.5	-5781
与被膜关系密切	-5782
内可见液性暗区	-5783
左叶中下可见一	-5784
×0.31×0.33	-5785
甲状腺左叶上极可见一大小	-5786
胆囊外形正常	-5787
右下颈肿大淋巴结	-5788
×0.28×0.31	-5789
▁右下颈气管旁低回声区	-5790
定期复查甲状腺回声不均匀	-5791
双附件	-5792
见多发	-5793
左上颈及	-5794
双侧颈部扫	-5795
壁增厚性病变	-5796
已于体表定位	-5797
左右叶实质回声减低	-5798
×0.25×0.29	-5799
×0.35×0.38	-5800
呈分叶状	-5801
甲状腺内	-5802
性淋巴结炎	-5803
0.8×0.9	-5804
:2.2×1.7	-5805
×0.24×0.32	-5806
甲状腺左右叶部分切除术后	-5807
膈面	-5808
右叶大小	-5809
患者自诉	-5810
气管受压	-5811
建议查肝功	-5812
考虑淋巴结	-5813
软组织水肿	-5814
病变扫查不清	-5815
囊壁可见一大小	-5816
内可见斑片状强回声	-5817
甲状腺右叶下极浅层	-5818
×0.26×0.29	-5819
:1.1×1.1×0.9	-5820
鞘瘤	-5821
液性回声	-5822
神经鞘瘤	-5823
位于右颌下	-5824
:2.1×0.6	-5825
×0.33×0.36	-5826
突出	-5827
脾内	-5828
内侧可见	-5829
×1.61	-5830
血管显示不清	-5831
左中下颈多发淋巴结	-5832
×0.26×0.28	-5833
×0.32×0.39	-5834
×0.34×0.37	-5835
×0.37×0.44	-5836
甲状腺右叶中下可见多发囊性结节	-5837
侧壁	-5838
:1.14	-5839
符合转移瘤	-5840
及点状强回声反射	-5841
考虑腺瘤性甲状腺肿	-5842
×0.24×0.31	-5843
×0.27×0.35	-5844
×0.31×0.39	-5845
×0.35×0.37	-5846
:1.4×1.2×1.1	-5847
对侧	-5848
▁双上颈	-5849
右肾多发	-5850
及左叶中下	-5851
可见多发潜在	-5852
神经源性肿物	-5853
×0.22×0.27	-5854
右中颈淋巴结	-5855
左肾囊肿前列腺增生	-5856
甲状腺左叶中部深层	-5857
×0.21×0.26	-5858
×0.30×0.32	-5859
:1.6×1.2×0.8	-5860
甲状腺右叶中部实性结节伴钙化	-5861
▁甲状腺右叶上极实性肿物伴钙化	-5862
=26	-5863
内充满	-5864
肠系膜	-5865
1.25	-5866
胸骨后方	-5867
内见强回声	-5868
右残叶中下	-5869
2.0×1.0	-5870
:1.3×1.3×0.8	-5871
:1.7×1.3×1.0	-5872
▁甲状腺右叶多发实性肿物及结节	-5873
不宽	-5874
根部	-5875
面颊部	-5876
内透声欠佳	-5877
甲状腺回声稍粗糙	-5878
▁右下颈多发肿大淋巴结	-5879
可疑转移性甲状腺回声不均匀	-5880
堆积	-5881
带状	-5882
管道	-5883
肝门区	-5884
▁盆腔内	-5885
位于中间	-5886
结构紊乱	-5887
脂肪组织	-5888
考虑术后积液	-5889
脂肪肝胆囊息肉	-5890
多发实性及囊实性肿物	-5891
左中下颈及左下颈气管旁	-5892
考虑结甲囊性成分吸收后改变	-5893
位于肝右叶可见一个强回声反射区	-5894
肠间	-5895
×1.63	-5896
以右叶为著	-5897
肝内回声增强	-5898
×2.6×1.7	-5899
×0.29×0.32	-5900
×0.32×0.34	-5901
:1.6×1.4×0.9	-5902
▁二尖瓣	-5903
双上颈部	-5904
显示清楚	-5905
2.1×1.0	-5906
考虑滤泡性肿瘤	-5907
可见少许腺体回声	-5908
甲状腺右叶中上可见	-5909
与甲状腺被膜关系密切	-5910
双颈部可见多发肿大淋巴结影	-5911
子宫多发肌瘤宫颈多发那勃氏囊肿	-5912
界限清楚	-5913
×0.13	-5914
考虑腺瘤样结甲	-5915
似可见强回声光点	-5916
内可见强回声大钙化	-5917
×0.23×0.30	-5918
×0.27×0.34	-5919
内侧近峡叶可见一大小	-5920
前列腺增生上腹部未见明显肿物	-5921
肝内多发囊肿盆腔未见明显肿物	-5922
状部	-5923
略小	-5924
×1.60	-5925
位于近下极	-5926
双侧颈部扫物	-5927
甲状腺右叶回声不均	-5928
×0.30×0.39	-5929
位于皮下软组织内可见一	-5930
下肢深静脉未见明显血栓形成	-5931
两侧	-5932
偏后位	-5933
上腹腹膜后实性肿物	-5934
部分内可见小液性区	-5935
可见密集强回声小钙化	-5936
甲状腺血流信号不丰富	-5937
右肾可见多发囊性无回声区	-5938
周边及内部可见大小不等钙化	-5939
甲状腺右叶可见多个囊性回声	-5940
,2	-5941
注意	-5942
有包膜	-5943
×6.7	-5944
:1.13	-5945
形态略饱满	-5946
可见多发强回声结晶	-5947
×0.35×0.39	-5948
深层可见一极低回声区	-5949
下咽	-5950
体积增大	-5951
片状低回声	-5952
2.5×0.9	-5953
待除外密切观察	-5954
斑块样强回声钙化	-5955
×0.30×0.34	-5956
×0.34×0.38	-5957
×0.40×0.43	-5958
较前未见明显变化观察	-5959
部分周边可见低回声晕	-5960
甲状腺右叶未见明显肿物	-5961
部分可见强回声粗大钙化	-5962
定期复查甲状腺弥漫性病变	-5963
左侧颌下腺及腮腺未见明显肿物	-5964
位置可见一	-5965
颈内静脉后方	-5966
:2.0×1.1	-5967
腔静脉右后方可见一	-5968
×0.32×0.33	-5969
:1.6×1.3×0.8	-5970
:1.7×1.3×0.9	-5971
:1.7×1.4×1.1	-5972
定期复查胆囊多发结石	-5973
上中下可见多发实性结节	-5974
右下颈可见多发低回声肿大淋巴结影	-5975
肝脏术后	-5976
:1.15	-5977
:2.0×1.8	-5978
▁甲状腺右叶术区	-5979
位于双下颈气管旁	-5980
▁左颈多发肿大淋巴结	-5981
:1.2×1.1×1.0	-5982
甲状腺左叶上中下可见多发囊性结节	-5983
表现	-5984
5.9	-5985
内侧深层	-5986
左右叶中下	-5987
可见多发钙化	-5988
左右叶及峡叶	-5989
可见游离液性暗区	-5990
甲状腺左叶上极实性肿物	-5991
多支导管扩张	-5992
甲状腺左叶区	-5993
:0.7×0.2	-5994
甲状腺射频治疗后第	-5995
×0.41×0.47	-5996
中间可见一同性质结节	-5997
部分内可见强回声大钙化	-5998
位于肝左叶可见一个强回声反射区	-5999
加压	-6000
不除外转移性	-6001
处皮下可见一	-6002
甲状腺左叶稍小	-6003
甲状腺左叶钙化灶	-6004
中间可见一低回声区	-6005
甲状腺右叶中部深层	-6006
×0.21×0.25	-6007
×0.34×0.41	-6008
胆囊壁可见一等回声区	-6009
不移动	-6010
:7.0	-6011
×1.59	-6012
液性回声区	-6013
左锁上可见一低回声淋巴结影	-6014
▁甲状腺右叶囊实性肿物伴钙化	-6015
部分结节内可见较丰富血流信号	-6016
大小形态	-6017
宫体形态轮廓清晰	-6018
未见异常血流信号	-6019
甲状腺左残叶及右叶	-6020
×0.33×0.41	-6021
▁颈部未见明显肿物影	-6022
甲状腺左叶中上可见一大小	-6023
×1.62	-6024
×1.4×0.7	-6025
可见多发沙粒样钙化	-6026
未见异常肿大淋巴结	-6027
×0.35×0.42	-6028
×0.35×0.43	-6029
局部甲状腺被膜不连续	-6030
双颌下可见多发淋巴结影	-6031
部分周边可见低回声晕环	-6032
甲状腺右叶中部可见一大小	-6033
左锁上可见多发肿大淋巴结影	-6034
宫壁间	-6035
全切术后	-6036
:0.9×1.0	-6037
左残叶回声欠均匀	-6038
×0.28×0.30	-6039
甲状腺左叶中部可见一大小	-6040
双乳呈均匀纤维腺体背景回声	-6041
部分结节可见较丰富血流信号	-6042
及中部	-6043
▁左下颈及	-6044
:2.2×1.6	-6045
考虑炎性双颈部多发肿大淋巴结	-6046
:2	-6047
1.30	-6048
:1.17	-6049
双侧腮腺及	-6050
右叶下极可见一	-6051
可见两个囊性结节	-6052
▁双下肢深静脉扫查	-6053
×0.22×0.28	-6054
左上腹	-6055
彩色血流	-6056
考虑淋巴结核	-6057
2.2×1.0	-6058
弧形强回声钙化	-6059
×1.4×1.4	-6060
×2.8×2.2	-6061
甲状腺右残叶中部	-6062
▁甲状腺回声欠均匀	-6063
×0.34×0.42	-6064
×0.40×0.44	-6065
甲状腺左右叶及峡叶多发结节	-6066
▁宫颈	-6067
×1.64	-6068
呈中低回声区	-6069
皮下软组织内肿物	-6070
×0.25×0.33	-6071
×0.28×0.37	-6072
×0.34×0.36	-6073
×0.37×0.42	-6074
:×	-6075
1.28	-6076
乳头深面	-6077
浅层被膜下	-6078
肿物内抽吸	-6079
及囊性小结节	-6080
1.6×1.1	-6081
甲状腺左右叶另	-6082
:1.6×0.4	-6083
×0.23×0.26	-6084
胆囊内可见多发强回声团	-6085
部分可见点状强回声结晶	-6086
▁甲状腺右叶中部实性肿物伴钙化	-6087
左锁上可见多个低回声肿大淋巴结影	-6088
1.27	-6089
×6.8	-6090
右叶增大	-6091
:1.21	-6092
中上颈颈前	-6093
考虑低脂区	-6094
肝包膜完好	-6095
内侧实性结节	-6096
可见少许髓质	-6097
部分可见小钙化	-6098
:2.1×1.1	-6099
:2.2×1.8	-6100
低回声肿物及结节	-6101
浅层近峡部可见一	-6102
▁左下颈气管旁实性结节	-6103
:1.2×0.8×0.8	-6104
未见明显异常肿大淋巴结影	-6105
肝左叶可见一个低回声反射区	-6106
双侧腮腺及颌下腺未见明显肿物影	-6107
6.0	-6108
与食管	-6109
左中颈部	-6110
左房增大	-6111
0.2×0.3	-6112
×0.22×0.26	-6113
部分内可见强回声光点	-6114
甲状腺右叶上极浅层可见一	-6115
考虑炎性盆腔未见明显肿物	-6116
左下颈气管旁可见多发淋巴结影	-6117
实结节	-6118
被膜不	-6119
1.31	-6120
管壁尚光滑	-6121
部分欠规则	-6122
及小块状钙化	-6123
内未见明显肿物	-6124
▁右锁上肿大淋巴结	-6125
×0.37×0.39	-6126
×0.40×0.42	-6127
周边可见环形血流信号	-6128
:1.0×0.9×0.5	-6129
:1.1×0.7×0.5	-6130
:12	-6131
实质内可探及	-6132
可见少量液性区	-6133
宫腔可见液性暗区	-6134
抽吸内容物涂片及	-6135
×0.21×0.28	-6136
×0.23×0.31	-6137
甲状腺左叶中上及右叶	-6138
轮廓尚清晰	-6139
考虑血栓形成	-6140
1.1×0.3	-6141
甲状腺右叶中部可见	-6142
甲状腺左叶下极结节	-6143
甲状腺左右叶另可见多发实性	-6144
上移	-6145
未扫及	-6146
甲状腺左叶上	-6147
:2.2×0.9	-6148
甲状腺右叶上极可见	-6149
×0.24×0.27	-6150
×0.31×0.40	-6151
部分可见点状强回声反射	-6152
部分结节内可见粗大钙化	-6153
:1.5×1.2×1.1	-6154
瓣环	-6155
胸壁扫查	-6156
:1.19	-6157
考虑来自喉	-6158
可见弥漫分布	-6159
建议结合其它检查	-6160
另于	-6161
个相邻	-6162
3)——	-6163
相似结节	-6164
请结合胃镜	-6165
×2.7×2.2	-6166
左侧腮腺内可见一	-6167
肝内回声分布均匀	-6168
×0.21×0.27	-6169
×0.23×0.29	-6170
×0.24×0.26	-6171
内可见粗大强回声钙化	-6172
右侧颌下腺及腮腺未见明显肿物	-6173
右乳外侧	-6174
间界限不清	-6175
管腔结构清晰	-6176
肝右叶小囊肿	-6177
甲状腺右叶腺体	-6178
×0.32×0.41	-6179
×0.38×0.41	-6180
可见一低回声肿大淋巴结	-6181
定期复查上腹部未见明显肿物	-6182
右上颈可见多发低回声淋巴结影	-6183
类似	-6184
▁双乳	-6185
点钟方向	-6186
下肢胫后静脉	-6187
左侧叶最大约	-6188
管道显示清楚	-6189
颈总动脉后方	-6190
1.7×0.4	-6191
1.9×1.0	-6192
管腔未见明显狭窄	-6193
甲状腺左叶中部可见	-6194
×0.22×0.29	-6195
×0.33×0.42	-6196
×0.36×0.43	-6197
甲状腺右叶内血流信号不丰富	-6198
▁甲状腺左叶中部实性肿物伴钙化	-6199
左耳前	-6200
右肾切除术后	-6201
后被膜关系密切	-6202
可见两个低回声区	-6203
矢状部	-6204
胆囊增大	-6205
及气管周围	-6206
2.3×1.0	-6207
×2.8×2.1	-6208
甲状腺左叶近峡部	-6209
恶性待除外密切观察	-6210
甲状腺右叶内可见一	-6211
:1.7×1.4×0.9	-6212
,4	-6213
稍粗糙	-6214
可见潜在	-6215
向右移位	-6216
:1.16	-6217
考虑桥本及	-6218
左肾盂光带分离	-6219
甲状腺左叶术区	-6220
及峡部可见多发实性	-6221
双侧腮腺实质回声均匀	-6222
部分可见条形血流信号	-6223
▁右下颈气管旁实性结节	-6224
囊壁欠光整	-6225
子宫内膜增厚	-6226
右侧颌下腺术后	-6227
回声粗糙欠均匀	-6228
:1.2×1.3	-6229
×1.9×1.9	-6230
×0.35×0.44	-6231
可见多发囊性无回声结节	-6232
甲状腺右残叶实质回声减低	-6233
考虑转移性甲状腺左叶多发结节	-6234
左锁上可见多发低回声肿大淋巴结	-6235
甲状腺左右叶实质回声稍粗糙不均匀	-6236
——1.	-6237
位于肝内	-6238
前大小约	-6239
区淋巴结	-6240
左侧叶大小	-6241
呈实性低回声	-6242
×2.1×2.0	-6243
甲状腺右叶下极结节	-6244
×0.29×0.31	-6245
甲状旁腺内可见一大小约	-6246
甲状腺左叶近峡部可见一	-6247
:1.3×1.3×0.9	-6248
▁甲状腺左右叶多发结节及肿物	-6249
切面	-6250
考虑增生	-6251
被膜不平整	-6252
:2.2×0.8	-6253
×2.3×2.1	-6254
甲状腺峡部可见一	-6255
考虑腮腺内淋巴结	-6256
胆囊壁局限性增厚	-6257
▁右颈多发实性肿物	-6258
▁甲状腺右残叶结节	-6259
×0.22×0.25	-6260
×0.29×0.30	-6261
×0.38×0.42	-6262
×0.40×0.45	-6263
▁甲状腺右叶中部结节	-6264
肿大伴多发肿物及结节	-6265
建议结合甲功检查甲状腺左叶结节	-6266
腺纤维瘤	-6267
×1.67	-6268
(2、3、4	-6269
结合其它检查	-6270
腺体结构清晰	-6271
2.6×0.7	-6272
▁双侧颈内静脉	-6273
双侧颈动脉扫查	-6274
肝实质回声细腻	-6275
:2.1×1.2	-6276
×2.4×1.4	-6277
▁甲状腺左残叶结节	-6278
多发扁平肿大淋巴结	-6279
×0.37×0.40	-6280
×0.39×0.42	-6281
▁脂肪肝肝内多发囊肿	-6282
双中上颈多发肿大淋巴结	-6283
左叶上中下可见多发实性	-6284
:1.5×1.1×0.7	-6285
甲状腺右叶下极回声不均匀	-6286
不大	-6287
或扩张	-6288
部分伴	-6289
簇状钙化	-6290
腔内可见	-6291
腹腔胀气	-6292
右肾盂积水	-6293
:2.1×1.0	-6294
×2.5×1.5	-6295
×2.5×2.2	-6296
×2.8×1.9	-6297
×0.26×0.27	-6298
×0.37×0.45	-6299
部分可见大小不等钙化	-6300
双附件未见明显异常回声	-6301
右侧腮腺及双侧颌下腺实质回声均匀	-6302
:7.1	-6303
可见造影剂	-6304
处低回声区	-6305
甲状腺左叶后方	-6306
考虑结甲伴囊性变	-6307
可见点状强回声小钙化	-6308
左下颈可见多发淋巴结影	-6309
左下颈气管旁低回声结节	-6310
:1.5×1.1×1.0	-6311
▁颈部未见明显肿物上腹部	-6312
考虑结甲吸收后改变可能性大	-6313
憋尿	-6314
残留	-6315
倾向良性	-6316
旁腺囊肿	-6317
左叶前后径	-6318
胆囊显示尚清	-6319
右中下颈多发淋巴结	-6320
周边可见强回声反射	-6321
结节性甲状腺肿结节	-6322
可见多个实性及囊实性结节	-6323
颈外可见多发低回声肿大淋巴结影	-6324
肝囊肿	-6325
左残叶中下	-6326
钙乳性囊肿	-6327
RADSII	-6328
回声相似结节	-6329
×2.9×2.1	-6330
回声稍粗糙不均匀	-6331
甲状腺左叶上极可见	-6332
×0.36×0.42	-6333
内可见多个低回声反射区	-6334
左锁上可见多个低回声淋巴结影	-6335
左侧腮腺及双侧颌下腺实质回声均匀	-6336
,3.6	-6337
上述肿物	-6338
右中上颈部	-6339
右侧叶大小	-6340
右残叶下极	-6341
内侧紧邻气管	-6342
×0.31×0.32	-6343
管腔未见明显狭窄或扩张	-6344
:1.1×0.7×0.7	-6345
12	-6346
位于上方	-6347
脾脏形态饱满	-6348
甲状腺左右叶还	-6349
右残叶回声欠均匀	-6350
内侧可见一低回声区	-6351
甲状腺左残叶可见一	-6352
×0.29×0.38	-6353
甲状腺左叶内血流信号稍丰富	-6354
腺囊肿	-6355
较前明显	-6356
×1.65	-6357
考虑为结晶	-6358
类圆形淋巴结	-6359
1.7×1.1	-6360
瘤体内血流信号	-6361
近峡叶实性结节	-6362
×0.36×0.39	-6363
×0.40×0.48	-6364
胰腺及腹膜后扫查不清	-6365
观察甲状腺回声不均匀	-6366
右下颈气管旁低回声结节	-6367
考虑炎性甲状腺右叶实性结节	-6368
甲状腺左叶下极实性结节伴钙化	-6369
引流	-6370
=1.0	-6371
占据整个	-6372
肝内胆管	-6373
内弱回声反射	-6374
左中下颈气管旁	-6375
×0.39×0.45	-6376
×0.40×0.47	-6377
内未见明显占位性病变	-6378
考虑转移瘤治疗后改变	-6379
内可见多发囊性无回声区	-6380
注射	-6381
1.37	-6382
:1.18	-6383
个低回声反射区	-6384
:2.1×1.8	-6385
甲状腺峡叶及右叶	-6386
甲状腺可见多发实性	-6387
×0.32×0.32	-6388
:1.7×1.5×1.1	-6389
甲状腺右叶中下可见多发低回声结节	-6390
断面	-6391
气管插	-6392
×6.9	-6393
=1.0,	-6394
位于左颌下	-6395
甲状腺残叶	-6396
或不典型结甲	-6397
腔内可见多发	-6398
1.4×1.2	-6399
坏死性淋巴结炎	-6400
:2.2×0.7	-6401
肿大淋巴结内抽吸	-6402
左右叶上中下及峡叶	-6403
×0.41×0.46	-6404
甲状腺左右叶弥漫性肿大	-6405
双下颈气管旁多发肿大淋巴结	-6406
效应	-6407
×1.70	-6408
0.7×0.2	-6409
×2.6×1.6	-6410
考虑甲状旁腺腺瘤	-6411
×0.33×0.34	-6412
左上颈可见多发低回声淋巴结影	-6413
子宫肌腺症	-6414
考虑包裹性积液	-6415
:1.0×1.1	-6416
甲状腺左叶稍饱满	-6417
左乳多发低回声结节	-6418
甲状腺右叶中部外侧	-6419
甲状腺左叶内可见一	-6420
×0.30×0.31	-6421
×0.30×0.38	-6422
:1.0×0.7×0.6	-6423
考虑转移性甲状腺左叶实性结节	-6424
处扫查	-6425
转移性淋巴结待除外	-6426
×0.26×0.35	-6427
×0.39×0.44	-6428
×0.40×0.46	-6429
可见两个低回声淋巴结影	-6430
内可见强回声小钙化及结晶	-6431
胆囊多发息肉颈部未见明显肿物	-6432
尚好	-6433
均可见	-6434
连续性	-6435
占位效应	-6436
慢性胆囊炎	-6437
管壁回声增强	-6438
大小不等的钙化	-6439
×0.36×0.38	-6440
可见多发低回声结节影	-6441
甲状腺左右叶各可见一	-6442
左下颈气管旁可见一低回声结节	-6443
血管显示欠清	-6444
:2.3×1.8	-6445
×1.5×1.5	-6446
×0.41×0.44	-6447
左下颈气管旁及气管前	-6448
甲状腺左叶可见一大小	-6449
甲状腺左叶上极深层可见一	-6450
甲状腺左叶可见多个囊性回声	-6451
左右叶上中下及峡叶可见多发实性	-6452
分别为	-6453
▁左颈前	-6454
局限性扩张	-6455
右中颈可见一	-6456
弥漫性稍增大	-6457
2.2×0.5	-6458
可见两个低回声反射区	-6459
甲状腺左残叶弥漫性病变	-6460
:1.5×1.2×0.7	-6461
甲状腺右叶上极可见一大小	-6462
=39	-6463
左大腿	-6464
1.29	-6465
1.6×1.2	-6466
甲状腺右叶中下结节	-6467
×0.34×0.43	-6468
×0.38×0.44	-6469
符合转移瘤治疗后改变	-6470
▁右上颈多发肿大淋巴结	-6471
甲状腺右叶中下实性结节伴钙化	-6472
颈段	-6473
颈外静脉	-6474
右侧中上颈	-6475
部分可见周边	-6476
×2.3×1.3	-6477
×0.36×0.44	-6478
×0.37×0.46	-6479
0.5×0.5×0.4	-6480
可见多个实性及囊性结节	-6481
脂肪瘤	-6482
腓静脉	-6483
1.32	-6484
▁腹腔扫查	-6485
皮下实性肿物	-6486
×2.6×2.2	-6487
×0.20×0.24	-6488
甲状腺右叶中上可见一大小	-6489
稍厚	-6490
右中颈部	-6491
1.8×1.1	-6492
考虑炎性上腹部	-6493
×0.25×0.27	-6494
1.1×0.9×0.6	-6495
甲状腺右叶中上实性肿物	-6496
:1.2×0.8×0.5	-6497
肝内可见多发片状低回声区	-6498
中腹	-6499
其中	-6500
环状	-6501
<10	-6502
向左侧	-6503
节育环	-6504
cmcm	-6505
肝左叶小囊肿	-6506
2.6×0.9	-6507
:2.2×1.2	-6508
2、3、4、5、6	-6509
0.7×0.6×0.5	-6510
减小	-6511
生理性	-6512
位于外侧	-6513
胸锁关节	-6514
1.5×1.2	-6515
部分内部回声不均匀	-6516
▁甲状腺右叶多发肿物	-6517
左下颈气管旁囊性结节	-6518
甲状腺左右叶多发实性及囊实性结节	-6519
后伴	-6520
小结石	-6521
直肠窝	-6522
:1.20	-6523
:1.22	-6524
▁胸骨上窝	-6525
无明显占位效应	-6526
:2.2×1.0	-6527
▁右下颈肿大淋巴结	-6528
颌下腺未见明显肿物	-6529
×0.20×0.26	-6530
×0.36×0.37	-6531
×0.38×0.43	-6532
甲状腺右残叶可见多发实性	-6533
考虑桥本氏甲状腺炎建议结合甲功	-6534
中间层	-6535
右乳最大位于	-6536
2.7×0.8	-6537
肝右叶低回声区	-6538
×0.32×0.42	-6539
考虑炎性胆囊多发息肉	-6540
可见一个低回声淋巴结影	-6541
:1.2×1.0×1.0	-6542
甲状腺左右叶多发片状低回声区	-6543
多房	-6544
退出	-6545
6.1	-6546
1.35	-6547
:7.2	-6548
右乳外下	-6549
:1.23	-6550
左中颈淋巴结	-6551
左侧颌下腺术后	-6552
甲状腺左叶缩小	-6553
考虑结甲纤维化钙化	-6554
×0.40×0.40	-6555
周边可见薄厚不一晕环	-6556
射频消融治疗前大小约	-6557
胆囊旁可见片状低回声区	-6558
双侧颌下腺及腮腺回声不均匀	-6559
上中下可见多发实性肿物及结节	-6560
右下颈气管旁可见多发低回声淋巴结	-6561
建议结合甲功检查左下颈多发淋巴结	-6562
右锁区	-6563
血流丰富	-6564
肝右叶高回声区	-6565
腔内可见一直径	-6566
腔内可见密集强	-6567
双颌下多发淋巴结	-6568
背侧可见一大小约	-6569
肝内多发囊肿右肾囊肿	-6570
周边可见稍丰富血流信号	-6571
双侧腋下及双侧腹股沟扫查	-6572
内可见小	-6573
前臂静脉	-6574
向胸骨后方	-6575
左乳实性肿物	-6576
肌壁回声粗糙	-6577
×2.7×1.7	-6578
考虑转移瘤可能性大	-6579
×0.27×0.36	-6580
×0.37×0.37	-6581
肿大及异常回声淋巴结影	-6582
考虑结甲或桥本结节可能性大	-6583
”。	-6584
韧带	-6585
相邻两个	-6586
异位甲状腺	-6587
右侧叶最大约	-6588
右叶部分结节	-6589
1.3×1.2	-6590
周边可见强回声	-6591
术区可见范围约	-6592
:2.2×0.6	-6593
甲状腺右叶可见一大小	-6594
1.2×1.0×0.7	-6595
考虑转移性甲状腺右叶实性结节	-6596
复杂	-6597
动脉期	-6598
肾上腺区	-6599
胆囊息肉样病变	-6600
可见多支肌间静脉	-6601
子宫内膜显示不清	-6602
甲状腺右叶中部外侧可见一	-6603
可行	-6604
杂乱	-6605
:66	-6606
于动脉期	-6607
:2.4×1.7	-6608
×2.9×2.3	-6609
×0.39×0.43	-6610
与甲状腺前被膜关系密切	-6611
蜂窝	-6612
不完整	-6613
右大腿	-6614
点状小钙化	-6615
左乳最大位于	-6616
可见散在小钙化	-6617
恶性待除外建议结合	-6618
×0.25×0.34	-6619
×0.39×0.47	-6620
▁甲状腺左右叶小结节	-6621
可见强回声小钙化及液性区	-6622
肩部	-6623
6.2	-6624
6.3	-6625
左叶大小	-6626
▁腹部扫查	-6627
与颈内静脉	-6628
中等回声团	-6629
:2.0×0.5	-6630
×2.2×1.2	-6631
胫后静脉管腔对称	-6632
×0.20×0.25	-6633
×0.27×0.29	-6634
×0.28×0.38	-6635
×0.41×0.45	-6636
×0.44×0.49	-6637
敷料	-6638
脾稍大	-6639
1.33	-6640
合并桥本	-6641
低回声包块	-6642
右侧中下颈	-6643
扫查欠满意	-6644
右侧最大结节	-6645
甲状腺峡叶术后	-6646
软组织结构正常	-6647
:1.1×1.2	-6648
×2.9×2.0	-6649
×0.31×0.41	-6650
:1.4×1.3×1.1	-6651
肝内多发囊肿胆囊多发结石	-6652
双上颈可见多发低回声淋巴结	-6653
考虑转移瘤甲状腺回声不均匀	-6654
可见多发囊性及囊实性肿物及结节	-6655
=47	-6656
硬化结节	-6657
上颈颈前偏右	-6658
肉芽肿性病变	-6659
肝左叶钙化灶	-6660
腺瘤可能性大	-6661
左肾可见一直径	-6662
▁甲状腺左叶术区	-6663
考虑桥本及结甲结节	-6664
×0.38×0.40	-6665
×0.42×0.48	-6666
甲状腺峡部偏左可见一	-6667
:1.2×1.0×0.5	-6668
1.2,	-6669
×1.66	-6670
区低回声区	-6671
左乳切除术后	-6672
内可见低回声区	-6673
甲状腺体积稍小	-6674
甲状腺峡部偏左	-6675
×0.35×0.35	-6676
0.4×0.4×0.3	-6677
宫颈可见多发囊性无回声	-6678
宫颈可见多发囊性无回声区	-6679
部分内可见粗大强回声钙化	-6680
▁甲状腺左叶多发实性肿物及结节	-6681
RT	-6682
突破被膜	-6683
腺体中央	-6684
右叶实性肿物	-6685
▁甲状腺右叶下极结节	-6686
甲状腺左叶中部深面可见一	-6687
部分内可见点线状血流信号	-6688
部分周边可见少许血流信号	-6689
▁肝内多发囊肿颈部未见明显肿物	-6690
肌症	-6691
肝管	-6692
:65	-6693
另可见	-6694
超声所示	-6695
=1.2,	-6696
▁左下颈部	-6697
符合淋巴瘤	-6698
实性等回声肿物	-6699
局部边界不清楚	-6700
▁左颈多发实性肿物	-6701
甲状腺右叶内可见多发	-6702
甲状腺左叶近峡叶可见一	-6703
甲状腺右叶上极深层可见一	-6704
腔内可见多个强回声反射伴声影	-6705
受累	-6706
中膜增厚	-6707
位于外下	-6708
子宫偏后位	-6709
囊实性小结节	-6710
多发囊性肿物	-6711
:2.2×1.9	-6712
内见强回声大小不等钙化	-6713
:1.4×0.9×0.8	-6714
:1.8×1.4×1.1	-6715
甲状腺左右叶实质回声稍减低	-6716
颏下可见多发低回声淋巴结影	-6717
甲状腺左叶中下可见多发囊性结节	-6718
呈外	-6719
呈簇状	-6720
肘静脉	-6721
左叶增大	-6722
斑块形成	-6723
×0.22×0.30	-6724
×0.30×0.40	-6725
×0.42×0.44	-6726
及颏下多发肿大淋巴结	-6727
1.2×1.0×0.8	-6728
小肌瘤	-6729
样回声	-6730
网格状	-6731
,3.5	-6732
考虑导管	-6733
可见多发附壁	-6734
▁左中颈气管旁	-6735
:1.6×1.6	-6736
:1.7×1.7	-6737
:2.4×2.0	-6738
×2.8×1.8	-6739
×0.21×0.24	-6740
▁甲状腺左叶中下结节	-6741
考虑炎性双乳腺体增生	-6742
:1.7×1.3×1.1	-6743
:1.8×1.5×1.2	-6744
TE	-6745
皮脂	-6746
TERT	-6747
可见实性	-6748
右侧可见一	-6749
中高回声结节	-6750
可见无回声区	-6751
双颌下腺及腮腺	-6752
脂肪肝左肾囊肿	-6753
:2.3×1.6	-6754
×0.24×0.33	-6755
×0.34×0.35	-6756
×0.39×0.40	-6757
×0.44×0.47	-6758
双侧颌下腺回声欠均匀	-6759
0.6×0.5×0.4	-6760
1.1×1.0×0.7	-6761
位于肝左内叶可见一囊性无回声区	-6762
右叶区	-6763
肝左叶增大	-6764
部分淋巴结	-6765
脂肪层可见一	-6766
左下颈气管旁及	-6767
左叶下极可见一	-6768
×2.2×2.1	-6769
×0.27×0.28	-6770
×0.29×0.39	-6771
×0.38×0.39	-6772
甲状腺峡部偏右可见一	-6773
甲状腺左右叶回声减低	-6774
:1.4×1.3×0.7	-6775
:1.5×1.0×0.8	-6776
建议结合甲功检查甲状腺右叶结节	-6777
浅层可见片状低回声区及强回声反射	-6778
下颈前	-6779
,4.0	-6780
囊壁光整	-6781
:0.16	-6782
右乳腺体饱满	-6783
可见少许液性区	-6784
:2.4×1.8	-6785
×2.8×2.3	-6786
右中颈多发淋巴结	-6787
甲状腺左叶大小正常	-6788
×0.20×0.27	-6789
×0.39×0.46	-6790
×0.40×0.41	-6791
0.4×0.4×0.4	-6792
:1.0×1.0×0.8	-6793
双中上颈可见多发肿大淋巴结影	-6794
双颌下可见多发低回声淋巴结影	-6795
考虑转移瘤甲状腺右叶实性结节	-6796
考虑转移瘤甲状腺左叶实性结节	-6797
0.14	-6798
其内可见	-6799
右叶上下极	-6800
肘静脉注射	-6801
双发实性肿物	-6802
:1.7×0.4	-6803
▁左下颈低回声区	-6804
×0.36×0.46	-6805
×0.43×0.49	-6806
胆囊息肉盆腔未见明显肿物	-6807
甲状腺左右叶实质回声不均匀	-6808
右叶上中下可见多发实性肿物及结节	-6809
脾周	-6810
双肾盂	-6811
近锁上	-6812
最宽内径	-6813
囊壁稍增厚	-6814
胆总管不宽	-6815
左中颈可见一	-6816
双侧甲状腺术后	-6817
(2、3、4、6	-6818
建议超声造影检查	-6819
甲状腺左右叶小结节	-6820
:1.3×0.9×0.9	-6821
甲状腺左右叶可见多发结节	-6822
▁甲状腺峡叶偏左实性结节伴钙化	-6823
:1.25	-6824
超声造影扫查	-6825
同性质低回声区	-6826
:2.2×1.3	-6827
×0.41×0.48	-6828
:1.3×1.0×1.0	-6829
:1.5×1.4×1.1	-6830
:1.7×1.5×1.0	-6831
考虑淋巴类肿物治疗后改变	-6832
腮腺及颌下腺实质回声均匀	-6833
甲状腺右叶可见多个囊性结节	-6834
可疑转移性甲状腺右叶多发结节	-6835
▁甲状腺左叶上极实性肿物伴钙化	-6836
深面可见	-6837
个实性肿物	-6838
及右叶中部	-6839
及左叶下极	-6840
双髂脉管区	-6841
上颈颈前偏左	-6842
左叶部分结节	-6843
×2.1×1.1	-6844
可见小片状低回声区	-6845
×0.35×0.36	-6846
×0.35×0.45	-6847
×0.37×0.38	-6848
:1.26	-6849
肝脏显示清晰	-6850
×0.21×0.29	-6851
×0.33×0.43	-6852
处可见多发低回声肿大淋巴结影	-6853
内可见多发实性及囊实性肿物及结节	-6854
:13	-6855
断端处	-6856
下方实性肿物	-6857
考虑术后改变或	-6858
▁左颈多发淋巴结	-6859
定期复查左肾囊肿	-6860
×0.33×0.44	-6861
×0.38×0.46	-6862
▁甲状腺左叶中部结节	-6863
部分内可见强回声钙化灶	-6864
甲状腺左右叶及峡部可见多发实性	-6865
=25	-6866
TVS	-6867
伴分隔	-6868
,3.8	-6869
▁右颈前	-6870
皮脂腺囊肿	-6871
甲状旁腺回声	-6872
颏下多发淋巴结	-6873
:2.3×1.4	-6874
甲状腺右叶中下内侧	-6875
×0.28×0.29	-6876
:1.6×1.4×1.2	-6877
甲状腺左残叶可见多发实性	-6878
一次复查	-6879
挤压气管	-6880
气管受挤压	-6881
皮下淋巴结	-6882
脂肪肝右肾囊肿	-6883
:2.2×1.1	-6884
:2.3×0.9	-6885
双侧颌下腺弥漫性病变	-6886
考虑炎性包块可能性大	-6887
甲状腺右叶下极内侧可见一	-6888
利多	-6889
卡因	-6890
:63	-6891
利多卡因	-6892
右叶缩小	-6893
桥本病变	-6894
×1.68	-6895
位于左锁上	-6896
肝左叶后方	-6897
外侧实性结节	-6898
双侧附件区未见明显肿物	-6899
可见多发囊性及实性结节	-6900
甲状腺右残叶弥漫性病变	-6901
部分内可见丰富血流信号	-6902
:1.6×1.5×1.0	-6903
漂浮	-6904
尚均匀	-6905
1.34	-6906
左乳外下	-6907
:2.3×1.9	-6908
定期复查右肾囊肿	-6909
×0.23×0.32	-6910
×0.42×0.46	-6911
甲状腺血流信号稍丰富	-6912
▁左颌下多发肿大淋巴结	-6913
部分内可见强回声结晶及	-6914
:1.3×1.3×1.0	-6915
部分结节可见少量血流信号	-6916
或结合	-6917
皮肤层	-6918
左上颈多发淋巴结	-6919
浅层可见一范围约	-6920
可见两个囊实性结节	-6921
×0.25×0.35	-6922
×0.44×0.50	-6923
右锁上可见多发淋巴结影	-6924
瘤体内可见条形血流信号	-6925
:1.6×1.1×0.9	-6926
双侧颌下腺回声粗糙不均匀	-6927
未见明显血流信号双侧涎腺扫查	-6928
流动	-6929
潴留	-6930
胰体尾	-6931
外侧深层	-6932
×1.69	-6933
×0.30×0.30	-6934
×0.41×0.42	-6935
×0.41×0.49	-6936
伴多发附壁胆固醇结晶	-6937
左下颈气管旁可见一大小	-6938
:1.4×0.9×0.7	-6939
考虑结节性甲状腺肿脂肪肝	-6940
密切观察上腹部未见明显肿物	-6941
×1.73	-6942
气体强回声	-6943
中强回声反射	-6944
可见点状小钙化	-6945
部分形态欠规则	-6946
中间部位可见一大小	-6947
甲状腺部分切除术后	-6948
×0.22×0.24	-6949
×0.23×0.25	-6950
×0.24×0.25	-6951
×0.34×0.44	-6952
既往	-6953
考虑复发	-6954
肿物术后	-6955
的低回声区	-6956
偏右实性结节	-6957
左上中下颈部	-6958
肝内血流信号	-6959
位于肝左外叶可见一个大小	-6960
甲状腺右叶内血流信号稍丰富	-6961
甲状腺左叶中上可见多发实性	-6962
部分结节周边可见少许血流信号	-6963
位于肝右前叶可见一囊性无回声区	-6964
充填	-6965
。3.	-6966
个低回声区	-6967
可见大钙化	-6968
右叶近上极	-6969
左下颈及气管旁	-6970
右侧腮腺内可见一	-6971
×0.28×0.28	-6972
×0.43×0.44	-6973
甲状腺峡叶实性结节伴钙化	-6974
▁甲状腺右叶中下实性肿物伴钙化	-6975
周边可见少许	-6976
×3.0×2.2	-6977
▁右锁上实性肿物	-6978
×0.33×0.33	-6979
×0.38×0.45	-6980
×0.44×0.48	-6981
部分周边可见粗大钙化	-6982
中上颈部多发肿大淋巴结	-6983
结甲囊性成分吸收后改变	-6984
右下颈气管旁可见一低回声结节	-6985
特殊	-6986
类型	-6987
。4.	-6988
。6.	-6989
:1.27	-6990
甲状腺右叶上	-6991
1.2×0.3	-6992
1.5×1.3	-6993
:1.9×1.8	-6994
:2.5×2.0	-6995
×2.4×2.2	-6996
内部结构显示不清	-6997
超声引导下行穿刺	-6998
×0.31×0.31	-6999
×0.39×0.41	-7000
1.2×0.9×0.7	-7001
局部甲状腺被膜似不连续	-7002
:1.4×1.0×0.6	-7003
位于左下颈及左下颈气管旁	-7004
。2.	-7005
区接近	-7006
右下腹	-7007
1.39	-7008
回声反射区	-7009
或术后改变	-7010
▁喉病变请结合	-7011
脾静脉未见扩张	-7012
×3.0×2.3	-7013
可见少量强回声髓质	-7014
甲状腺左叶中部结节	-7015
×0.42×0.49	-7016
×0.44×0.46	-7017
囊腔	-7018
胃壁	-7019
右叶明显	-7020
弹性良好	-7021
左侧可见一	-7022
甲状腺萎缩	-7023
2.4×1.0	-7024
双下颈气管旁及	-7025
外侧缘处可见一	-7026
腺体层间可见一	-7027
:2.3×1.5	-7028
×2.9×2.2	-7029
周边可见少量血流信号	-7030
可见点状血流信号余颈部	-7031
盆腔未见明显肿物双侧腋下	-7032
▁甲状腺左右残叶多发肿物及结节	-7033
腺肌症	-7034
:1.28	-7035
×1.71	-7036
颈总动脉内侧	-7037
:2.5×1.8	-7038
×2.6×2.3	-7039
×0.31×0.42	-7040
似可见点状强回声钙化	-7041
:1.3×1.3×0.7	-7042
:1.7×1.4×1.2	-7043
腮腺区	-7044
右叶术区	-7045
残叶大小	-7046
:1.24	-7047
建议结合活检	-7048
×3.0×2.1	-7049
右上颈多发淋巴结	-7050
×0.25×0.26	-7051
×0.42×0.45	-7052
可见多发低弱回声结节	-7053
肝内多发囊肿左肾囊肿	-7054
:1.6×1.2×1.1	-7055
:1.8×1.4×1.0	-7056
▁颈部未见明显肿物脂肪肝	-7057
:4	-7058
×.	-7059
×7.0	-7060
结构致密	-7061
前列腺正常	-7062
胆总管扩张	-7063
可见弧形钙化	-7064
左侧胸腔积液	-7065
1.9×1.1	-7066
×0.41×0.43	-7067
不典型结甲或桥本结节	-7068
:1.4×1.4×1.0	-7069
周围可见多发低回声肿大淋巴结影	-7070
=45	-7071
:7.3	-7072
内透声差	-7073
腔内未见	-7074
甲状腺右叶另	-7075
双髂脉管区扫查	-7076
囊壁局限性增厚	-7077
×2.9×2.4	-7078
右中颈肿大淋巴结	-7079
×0.36×0.36	-7080
×0.36×0.45	-7081
左下颈气管旁实性结节	-7082
肝右叶可见多发钙化灶	-7083
部分内可见点状血流信号	-7084
斑块处	-7085
后方回声	-7086
以囊性为主	-7087
实性成分为主	-7088
可见多发强回声团	-7089
近深层可见一大小	-7090
×0.19×0.24	-7091
×0.42×0.47	-7092
×0.44×0.52	-7093
▁左中下颈多发淋巴结	-7094
甲状腺右叶下极近峡叶可见一	-7095
▁甲状腺右叶多发片状低回声区	-7096
块状	-7097
前方甲状腺被膜	-7098
中间层可见一大小	-7099
×0.27×0.37	-7100
×0.35×0.46	-7101
×0.42×0.50	-7102
×0.43×0.47	-7103
双下颈多发肿大淋巴结	-7104
0.5×0.4×0.4	-7105
右中下颈多发肿大淋巴结	-7106
浅层可见片状回声减低区	-7107
:1.0×0.7×0.5	-7108
密切观察甲状腺右叶多发结节	-7109
考虑转移性甲状腺弥漫性病变	-7110
200	-7111
可见条形	-7112
位于右叶下极	-7113
肝左叶可见一大小	-7114
子宫多发肌瘤宫内环	-7115
甲状腺右叶中下深层	-7116
×0.28×0.39	-7117
颈外动脉管腔结构清晰	-7118
:1.5×1.4×0.8	-7119
▁甲状腺右叶近下极实性肿物	-7120
▁甲状腺左右叶及峡叶多发结节	-7121
▁甲状腺左叶囊实性肿物伴钙化	-7122
▁甲状腺右叶近下极实性结节伴钙化	-7123
,3.7	-7124
考虑囊肿	-7125
项部扫查	-7126
可见密集小钙化	-7127
多发囊实性肿物	-7128
:2.3×0.7	-7129
实质回声粗糙欠均匀	-7130
部分可见强回声光点	-7131
下颈气管旁多发淋巴结	-7132
甲状腺右叶近峡部可见一	-7133
位于右侧膈上可见液性暗区	-7134
右下颈气管旁可见多发淋巴结影	-7135
▁甲状腺左叶多发实性肿物伴钙化	-7136
左颈部可见多发低回声肿大淋巴结影	-7137
位于左颈	-7138
可见淋巴	-7139
左乳外侧	-7140
含液性包块	-7141
:2.3×1.3	-7142
考虑炎性肝右叶囊肿	-7143
×0.20×0.28	-7144
×0.39×0.48	-7145
可见强回声钙化伴声影	-7146
0.3×0.3×0.3	-7147
1.1×1.0×0.8	-7148
可见多个低回声实性肿物影	-7149
胆囊多发结石盆腔未见明显肿物	-7150
肿物与	-7151
特殊类型	-7152
:1.29	-7153
造影剂充盈	-7154
位于左中上颈	-7155
部分形态不规则	-7156
:1.2×0.3	-7157
:2.4×1.6	-7158
×0.39×0.39	-7159
×0.42×0.43	-7160
可见多发点状强回声反射	-7161
可见强回声结晶及小钙化	-7162
甲状腺内血流信号极丰富	-7163
:1.6×1.4×0.8	-7164
考虑结节性甲状腺肿及桥本结节	-7165
偏低	-7166
肿胀	-7167
较大肿物	-7168
左中下颈及	-7169
上腹实性肿物	-7170
右颌下可见一	-7171
肝内回声稍增强	-7172
,	-7173
腺	-7174
:	-7175
见	-7176
状	-7177
。	-7178
.	-7179
甲	-7180
声	-7181
结	-7182
回	-7183
肿	-7184
2	-7185
显	-7186
0	-7187
▁	-7188
性	-7189
查	-7190
大	-7191
未	-7192
明	-7193
叶	-7194
不	-7195
扫	-7196
m	-7197
—	-7198
可	-7199
部	-7200
侧	-7201
×	-7202
双	-7203
内	-7204
节	-7205
右	-7206
左	-7207
均	-7208
F	-7209
及	-7210
匀	-7211
c	-7212
实	-7213
物	-7214
、	-7215
下	-7216
清	-7217
血	-7218
颈	-7219
I	-7220
D	-7221
n	-7222
i	-7223
常	-7224
巴	-7225
淋	-7226
多	-7227
1	-7228
流	-7229
C	-7230
信	-7231
号	-7232
界	-7233
形	-7234
发	-7235
影	-7236
考	-7237
虑	-7238
规	-7239
则	-7240
4	-7241
3	-7242
(	-7243
)	-7244
囊	-7245
小	-7246
异	-7247
低	-7248
最	-7249
边	-7250
区	-7251
级	-7252
P	-7253
s	-7254
p	-7255
g	-7256
r	-7257
t	-7258
d	-7259
o	-7260
颌	-7261
态	-7262
管	-7263
肝	-7264
腮	-7265
涎	-7266
5	-7267
中	-7268
6	-7269
上	-7270
一	-7271
正	-7272
;	-7273
脉	-7274
后	-7275
分	-7276
7	-7277
强	-7278
腹	-7279
富	-7280
丰	-7281
质	-7282
-	-7283
除	-7284
8	-7285
外	-7286
胆	-7287
胰	-7288
9	-7289
极	-7290
化	-7291
炎	-7292
位	-7293
肾	-7294
钙	-7295
呈	-7296
变	-7297
静	-7298
欠	-7299
术	-7300
层	-7301
无	-7302
张	-7303
扩	-7304
脏	-7305
个	-7306
脾	-7307
晰	-7308
合	-7309
好	-7310
恶	-7311
A	-7312
示	-7313
气	-7314
滑	-7315
体	-7316
光	-7317
待	-7318
病	-7319
楚	-7320
膜	-7321
R	-7322
T	-7323
壁	-7324
少	-7325
S	-7326
旁	-7327
腔	-7328
粗	-7329
型	-7330
增	-7331
典	-7332
深	-7333
切	-7334
许	-7335
糙	-7336
瘤	-7337
检	-7338
周	-7339
功	-7340
于	-7341
本	-7342
桥	-7343
建	-7344
议	-7345
余	-7346
透	-7347
动	-7348
围	-7349
浅	-7350
在	-7351
良	-7352
氏	-7353
潜	-7354
点	-7355
伴	-7356
主	-7357
a	-7358
占	-7359
稍	-7360
较	-7361
满	-7362
约	-7363
构	-7364
饱	-7365
反	-7366
前	-7367
射	-7368
晶	-7369
峡	-7370
宫	-7371
平	-7372
弥	-7373
漫	-7374
面	-7375
能	-7376
b	-7377
表	-7378
?	-7379
近	-7380
间	-7381
厚	-7382
股	-7383
髂	-7384
减	-7385
充	-7386
盈	-7387
移	-7388
尚	-7389
盆	-7390
偏	-7391
髓	-7392
改	-7393
乳	-7394
锁	-7395
残	-7396
等	-7397
肢	-7398
方	-7399
布	-7400
包	-7401
栓	-7402
成	-7403
门	-7404
转	-7405
皮	-7406
径	-7407
细	-7408
胱	-7409
膀	-7410
疑	-7411
完	-7412
子	-7413
整	-7414
复	-7415
X	-7416
观	-7417
察	-7418
脂	-7419
液	-7420
期	-7421
肪	-7422
片	-7423
定	-7424
限	-7425
肌	-7426
相	-7427
腋	-7428
像	-7429
列	-7430
请	-7431
为	-7432
样	-7433
密	-7434
附	-7435
续	-7436
当	-7437
总	-7438
x	-7439
腻	-7440
沟	-7441
量	-7442
度	-7443
范	-7444
弱	-7445
吸	-7446
室	-7447
件	-7448
随	-7449
廓	-7450
轮	-7451
被	-7452
连	-7453
=	-7454
腘	-7455
瓣	-7456
直	-7457
胫	-7458
症	-7459
融	-7460
处	-7461
腿	-7462
沙	-7463
生	-7464
向	-7465
导	-7466
组	-7467
织	-7468
自	-7469
环	-7470
灶	-7471
软	-7472
团	-7473
系	-7474
肉	-7475
积	-7476
条	-7477
粒	-7478
似	-7479
各	-7480
集	-7481
息	-7482
局	-7483
缩	-7484
或	-7485
心	-7486
者	-7487
以	-7488
轻	-7489
收	-7490
的	-7491
两	-7492
抽	-7493
干	-7494
骨	-7495
穿	-7496
佳	-7497
石	-7498
盂	-7499
来	-7500
B	-7501
胃	-7502
/	-7503
其	-7504
晕	-7505
块	-7506
颏	-7507
同	-7508
疗	-7509
胸	-7510
隔	-7511
治	-7512
尿	-7513
类	-7514
别	-7515
输	-7516
刺	-7517
维	-7518
纤	-7519
统	-7520
宽	-7521
患	-7522
扁	-7523
排	-7524
舌	-7525
齐	-7526
与	-7527
背	-7528
延	-7529
超	-7530
行	-7531
针	-7532
测	-7533
置	-7534
尖	-7535
线	-7536
房	-7537
支	-7538
缘	-7539
差	-7540
并	-7541
索	-7542
注	-7543
舒	-7544
暗	-7545
符	-7546
另	-7547
段	-7548
断	-7549
探	-7550
灌	-7551
端	-7552
次	-7553
散	-7554
速	-7555
道	-7556
混	-7557
水	-7558
E	-7559
床	-7560
临	-7561
长	-7562
含	-7563
”	-7564
“	-7565
头	-7566
活	-7567
关	-7568
还	-7569
阴	-7570
走	-7571
高	-7572
峰	-7573
缺	-7574
三	-7575
值	-7576
二	-7577
引	-7578
史	-7579
耳	-7580
邻	-7581
薄	-7582
衰	-7583
如	-7584
受	-7585
频	-7586
卵	-7587
应	-7588
突	-7589
G	-7590
胞	-7591
癌	-7592
巢	-7593
用	-7594
送	-7595
使	-7596
容	-7597
消	-7598
尾	-7599
开	-7600
窦	-7601
述	-7602
基	-7603
肠	-7604
压	-7605
院	-7606
喉	-7607
底	-7608
闭	-7609
角	-7610
肺	-7611
斑	-7612
萎	-7613
慢	-7614
<	-7615
景	-7616
存	-7617
项	-7618
窝	-7619
固	-7620
醇	-7621
时	-7622
非	-7623
对	-7624
所	-7625
卧	-7626
镜	-7627
理	-7628
微	-7629
N	-7630
M	-7631
全	-7632
砾	-7633
征	-7634
学	-7635
星	-7636
该	-7637
顿	-7638
那	-7639
勃	-7640
口	-7641
隙	-7642
彗	-7643
远	-7644
要	-7645
称	-7646
场	-7647
原	-7648
%	-7649
入	-7650
必	-7651
胀	-7652
仰	-7653
因	-7654
育	-7655
谱	-7656
意	-7657
绕	-7658
弧	-7659
著	-7660
贲	-7661
运	-7662
毒	-7663
响	-7664
巾	-7665
铺	-7666
象	-7667
数	-7668
略	-7669
器	-7670
膈	-7671
硬	-7672
率	-7673
淡	-7674
网	-7675
色	-7676
涂	-7677
试	-7678
紧	-7679
他	-7680
弹	-7681
造	-7682
末	-7683
副	-7684
彩	-7685
保	-7686
食	-7687
飘	-7688
致	-7689
源	-7690
纹	-7691
错	-7692
毛	-7693
带	-7694
离	-7695
早	-7696
核	-7697
具	-7698
单	-7699
H	-7700
之	-7701
湍	-7702
交	-7703
法	-7704
详	-7705
餐	-7706
>	-7707
挤	-7708
有	-7709
式	-7710
手	-7711
起	-7712
唇	-7713
肋	-7714
经	-7715
降	-7716
贴	-7717
泡	-7718
诉	-7719
此	-7720
失	-7721
它	-7722
出	-7723
居	-7724
簇	-7725
进	-7726
圆	-7727
触	-7728
‘	-7729
’	-7730
神	-7731
枝	-7732
臂	-7733
短	-7734
蛋	-7735
树	-7736
比	-7737
纵	-7738
横	-7739
W	-7740
损	-7741
剂	-7742
累	-7743
域	-7744
泥	-7745
抗	-7746
淤	-7747
汁	-7748
滤	-7749
曲	-7750
通	-7751
机	-7752
至	-7753
坏	-7754
亚	-7755
咽	-7756
过	-7757
L	-7758
剑	-7759
沉	-7760
裹	-7761
芽	-7762
步	-7763
接	-7764
死	-7765
破	-7766
弯	-7767
距	-7768
锥	-7769
乱	-7770
睾	-7771
颗	-7772
肤	-7773
第	-7774
倾	-7775
游	-7776
始	-7777
壳	-7778
肘	-7779
叉	-7780
根	-7781
狭	-7782
杂	-7783
颊	-7784
波	-7785
V	-7786
亢	-7787
退	-7788
窄	-7789
肩	-7790
憩	-7791
留	-7792
侵	-7793
白	-7794
据	-7795
现	-7796
丸	-7797
已	-7798
e	-7799
呼	-7800
球	-7801
害	-7802
紊	-7803
缓	-7804
裂	-7805
央	-7806
快	-7807
伸	-7808
月	-7809
互	-7810
和	-7811
疏	-7812
加	-7813
几	-7814
l	-7815
巨	-7816
冻	-7817
适	-7818
冰	-7819
遮	-7820
挡	-7821
润	-7822
鞘	-7823
乎	-7824
浸	-7825
钟	-7826
凸	-7827
稀	-7828
格	-7829
腰	-7830
靠	-7831
肱	-7832
腓	-7833
填	-7834
鳃	-7835
堆	-7836
矢	-7837
+	-7838
插	-7839
料	-7840
枕	-7841
宜	-7842
憋	-7843
浮	-7844
顶	-7845
椎	-7846
效	-7847
重	-7848
假	-7849
达	-7850
感	-7851
往	-7852
卡	-7853
'	-7854
韧	-7855
蜂	-7856
而	-7857
敷	-7858
漂	-7859
利	-7860
特	-7861
洗	-7862
麻	-7863
放	-7864
儿	-7865
既	-7866
潴	-7867
殊	-7868
指	-7869
脱	-7870
诊	-7871
升	-7872
返	-7873
估	-7874
隐	-7875
报	-7876
砂	-7877
*	-7878
模	-7879
糊	-7880
犯	-7881
臀	-7882
共	-7883
搏	-7884
枚	-7885
果	-7886
絮	-7887
伤	-7888
继	-7889
迂	-7890
尺	-7891
图	-7892
诺	-7893
桡	-7894
沿	-7895
畅	-7896
染	-7897
痕	-7898
浪	-7899
素	-7900
海	-7901
由	-7902
瘢	-7903
确	-7904
十	-7905
浆	-7906
半	-7907
迟	-7908
扰	-7909
陈	-7910
会	-7911
旧	-7912
钩	-7913
脐	-7914
钼	-7915
粘	-7916
贵	-7917
趋	-7918
迫	-7919
幼	-7920
痛	-7921
风	-7922
力	-7923
险	-7924
疼	-7925
靶	-7926
到	-7927
渐	-7928
阻	-7929
肥	-7930
逐	-7931
乙	-7932
"	-7933
盏	-7934
板	-7935
提	-7936
火	-7937
且	-7938
畸	-7939
胛	-7940
安	-7941
精	-7942
绝	-7943
胎	-7944
足	-7945
四	-7946
得	-7947
颞	-7948
再	-7949
取	-7950
巧	-7951
评	-7952
刮	-7953
新	-7954
燥	-7955
从	-7956
松	-7957
植	-7958
克	-7959
综	-7960
拒	-7961
~	-7962
皱	-7963
贯	-7964
额	-7965
急	-7966
梗	-7967
情	-7968
瓶	-7969
套	-7970
闪	-7971
咬	-7972
斜	-7973
蠕	-7974
膝	-7975
程	-7976
难	-7977
供	-7978
六	-7979
隆	-7980
困	-7981
毗	-7982
途	-7983
童	-7984
伪	-7985
聚	-7986
丝	-7987
黄	-7988
年	-7989
塞	-7990
氟	-7991
硫	-7992
吞	-7993
易	-7994
O	-7995
棒	-7996
碘	-7997
幽	-7998
摸	-7999
马	-8000
空	-8001
协	-8002
柱	-8003
免	-8004
脓	-8005
调	-8006
彼	-8007
架	-8008
疫	-8009
鼻	-8010
纯	-8011
厌	-8012
介	-8013
蹄	-8014
身	-8015
先	-8016
腕	-8017
也	-8018
代	-8019
创	-8020
瘘	-8021
觉	-8022
垂	-8023
拉	-8024
汇	-8025
科	-8026
况	-8027
告	-8028
广	-8029
泛	-8030
牵	-8031
眼	-8032
骶	-8033
筋	-8034
丛	-8035
哺	-8036
终	-8037
鼠	-8038
嘱	-8039
亦	-8040
掌	-8041
就	-8042
立	-8043
地	-8044
疾	-8045
云	-8046
刻	-8047
天	-8048
迷	-8049
雾	-8050
五	-8051
标	-8052
疝	-8053
真	-8054
菲	-8055
夹	-8056
溃	-8057
母	-8058
绵	-8059
季	-8060
椭	-8061
壶	-8062
将	-8063
桃	-8064
男	-8065
辨	-8066
泌	-8067
盲	-8068
着	-8069
秒	-8070
膨	-8071
仅	-8072
凹	-8073
去	-8074
是	-8075
普	-8076
浊	-8077
激	-8078
需	-8079
坐	-8080
配	-8081
髋	-8082
电	-8083
遍	-8084
恢	-8085
辅	-8086
金	-8087
饮	-8088
验	-8089
作	-8090
慧	-8091
束	-8092
牙	-8093
盐	-8094
翼	-8095
计	-8096
诶	-8097
钯	-8098
&	-8099
丄	-8100
律	-8101
怀	-8102
k	-8103
殖	-8104
烁	-8105
联	-8106
腱	-8107
跨	-8108
习	-8109
势	-8110
缝	-8111
记	-8112
v	-8113
属	-8114
胶	-8115
串	-8116
人	-8117
仍	-8118
住	-8119
你	-8120
千	-8121
屈	-8122
珠	-8123
迹	-8124
龈	-8125
u	-8126
历	-8127
梨	-8128
脊	-8129
妇	-8130
弃	-8131
护	-8132
暂	-8133
磁	-8134
陷	-8135
弓	-8136
醉	-8137
我	-8138
栅	-8139
栏	-8140
监	-8141
祖	-8142
红	-8143
缠	-8144
装	-8145
Z	-8146
做	-8147
浑	-8148
內	-8149
冲	-8150
参	-8151
名	-8152
孕	-8153
际	-8154
专	-8155
梭	-8156
纱	-8157
越	-8158
优	-8159
港	-8160
睑	-8161
钱	-8162
卫	-8163
吗	-8164
日	-8165
晚	-8166
林	-8167
梁	-8168
h	-8169
哭	-8170
悬	-8171
褶	-8172
闹	-8173
事	-8174
了	-8175
亮	-8176
俯	-8177
哑	-8178
粥	-8179
耻	-8180
虚	-8181
轴	-8182
冠	-8183
吻	-8184
姐	-8185
嵌	-8186
幅	-8187
截	-8188
踝	-8189
铃	-8190
零	-8191
首	-8192
份	-8193
吧	-8194
园	-8195
字	-8196
更	-8197
涡	-8198
路	-8199
车	-8200
但	-8201
午	-8202
家	-8203
折	-8204
桂	-8205
盖	-8206
穹	-8207
粪	-8208
追	-8209
鱼	-8210
偿	-8211
呢	-8212
展	-8213
溶	-8214
滞	-8215
看	-8216
纳	-8217
群	-8218
踪	-8219
U	-8220
产	-8221
吊	-8222
啊	-8223
拇	-8224
疡	-8225
疸	-8226
窿	-8227
酒	-8228
尤	-8229
茎	-8230
饶	-8231
倒	-8232
尽	-8233
描	-8234
眉	-8235
花	-8236
若	-8237
蒂	-8238
避	-8239
钝	-8240
颜	-8241
剔	-8242
女	-8243
寸	-8244
循	-8245
括	-8246
溢	-8247
漏	-8248
瘪	-8249
祥	-8250
胡	-8251
脚	-8252
落	-8253
蓝	-8254
黏	-8255
龄	-8256
_	-8257
w	-8258
例	-8259
凝	-8260
剥	-8261
医	-8262
木	-8263
棕	-8264
洞	-8265
眶	-8266
种	-8267
罕	-8268
袭	-8269
躁	-8270
躲	-8271
匿	-8272
嗜	-8273
打	-8274
推	-8275
每	-8276
趾	-8277
酸	-8278
障	-8279
严	-8280
剧	-8281
妊	-8282
娠	-8283
工	-8284
服	-8285
欺	-8286
浓	-8287
烈	-8288
甚	-8289
瘀	-8290
碍	-8291
覆	-8292
访	-8293
阔	-8294
颅	-8295
八	-8296
只	-8297
叫	-8298
咀	-8299
嚼	-8300
封	-8301
录	-8302
徐	-8303
按	-8304
杨	-8305
纠	-8306
虫	-8307
证	-8308
赘	-8309
跟	-8310
嚢	-8311
官	-8312
德	-8313
想	-8314
换	-8315
稚	-8316
腭	-8317
药	-8318
锐	-8319
鳞	-8320
龙	-8321
|	-8322
元	-8323
又	-8324
叠	-8325
孤	-8326
岛	-8327
材	-8328
柄	-8329
求	-8330
稠	-8331
站	-8332
胚	-8333
解	-8334
课	-8335
谈	-8336
顺	-8337
f	-8338
j	-8339
乔	-8340
九	-8341
予	-8342
任	-8343
便	-8344
割	-8345
勾	-8346
否	-8347
塌	-8348
屏	-8349
抬	-8350
村	-8351
楔	-8352
毕	-8353
照	-8354
班	-8355
目	-8356
眦	-8357
策	-8358
米	-8359
粉	-8360
肚	-8361
肯	-8362
脑	-8363
虎	-8364
谢	-8365
选	-8366
镶	-8367
阑	-8368
雪	-8369
颧	-8370
饿	-8371
齿	-8372
Y	-8373
y	-8374
令	-8375
偶	-8376
僵	-8377
勒	-8378
即	-8379
启	-8380
咳	-8381
善	-8382
喘	-8383
嗽	-8384
孔	-8385
忽	-8386
才	-8387
把	-8388
政	-8389
棘	-8390
盘	-8391
筛	-8392
缔	-8393
老	-8394
肛	-8395
资	-8396
醒	-8397
鉴	-8398
钉	-8399
钡	-8400
青	-8401
业	-8402
乏	-8403
传	-8404
兴	-8405
冷	-8406
准	-8407
初	-8408
制	-8409
危	-8410
哦	-8411
库	-8412
斗	-8413
春	-8414
朝	-8415
权	-8416
杆	-8417
淀	-8418
禁	-8419
粟	-8420
胖	-8421
脸	-8422
芦	-8423
葫	-8424
补	-8425
设	-8426
踇	-8427
都	-8428
锯	-8429
颤	-8430
饼	-8431
黑	-8432
!	-8433
七	-8434
丢	-8435
义	-8436
依	-8437
剖	-8438
办	-8439
商	-8440
喷	-8441
垫	-8442
备	-8443
客	-8444
山	-8445
志	-8446
恩	-8447
扎	-8448
拘	-8449
控	-8450
旋	-8451
曾	-8452
案	-8453
桑	-8454
没	-8455
热	-8456
爱	-8457
独	-8458
玻	-8459
琴	-8460
硅	-8461
碎	-8462
窗	-8463
签	-8464
给	-8465
绷	-8466
芬	-8467
街	-8468
诋	-8469
辐	-8470
违	-8471
酶	-8472
阶	-8473
K	-8474
\	-8475
`	-8476
举	-8477
乃	-8478
伊	-8479
俩	-8480
借	-8481
公	-8482
养	-8483
册	-8484
剩	-8485
务	-8486
劲	-8487
北	-8488
厘	-8489
哟	-8490
唧	-8491
嘉	-8492
嘴	-8493
姆	-8494
尸	-8495
岱	-8496
店	-8497
归	-8498
彭	-8499
怒	-8500
思	-8501
慎	-8502
户	-8503
扪	-8504
扭	-8505
抢	-8506
持	-8507
挛	-8508
捡	-8509
掐	-8510
搭	-8511
摆	-8512
文	-8513
斯	-8514
昂	-8515
暴	-8516
李	-8517
校	-8518
槽	-8519
欧	-8520
池	-8521
洁	-8522
涵	-8523
渗	-8524
湿	-8525
灰	-8526
烂	-8527
烟	-8528
獭	-8529
璃	-8530
疤	-8531
痂	-8532
皆	-8533
研	-8534
社	-8535
篮	-8536
绍	-8537
羊	-8538
胯	-8539
菊	-8540
菜	-8541
萄	-8542
葡	-8543
蚪	-8544
蝌	-8545
蟹	-8546
西	-8547
负	-8548
里	-8549
钢	-8550
铭	-8551
阳	-8552
音	-8553
骼	-8554
魏	-8555
魔	-8556
J	-8557
]	-8558
z	-8559
{	-8560
°	-8561
·	-8562
≤	-8563
井	-8564
仔	-8565
们	-8566
佛	-8567
侠	-8568
修	-8569
停	-8570
偷	-8571
兹	-8572
净	-8573
划	-8574
劈	-8575
博	-8576
咐	-8577
咖	-8578
哈	-8579
售	-8580
啡	-8581
嘶	-8582
噬	-8583
堵	-8584
壮	-8585
婴	-8586
审	-8587
寄	-8588
尙	-8589
届	-8590
岩	-8591
嵴	-8592
市	-8593
师	-8594
帮	-8595
庆	-8596
康	-8597
很	-8598
忙	-8599
念	-8600
怕	-8601
愈	-8602
抓	-8603
挂	-8604
挺	-8605
撕	-8606
故	-8607
教	-8608
框	-8609
梅	-8610
概	-8611
止	-8612
江	-8613
沃	-8614
沪	-8615
油	-8616
洋	-8617
湖	-8618
滋	-8619
漩	-8620
瀨	-8621
版	-8622
牌	-8623
猫	-8624
王	-8625
申	-8626
瞩	-8627
磨	-8628
福	-8629
稳	-8630
箸	-8631
篇	-8632
糖	-8633
绿	-8634
美	-8635
胜	-8636
艳	-8637
芜	-8638
英	-8639
获	-8640
菌	-8641
蝙	-8642
蝠	-8643
视	-8644
认	-8645
话	-8646
谨	-8647
貌	-8648
货	-8649
赵	-8650
辛	-8651
这	-8652
逆	-8653
遗	-8654
酮	-8655
野	-8656
链	-8657
阅	-8658
阜	-8659
雨	-8660
韵	-8661
页	-8662
颚	-8663
馁	-8664
馆	-8665
髌	-8666
鹰	-8667
#	-8668
Q	-8669
[	-8670
}	-8671
≥	-8672
【	-8673
乐	-8674
书	-8675
买	-8676
些	-8677
京	-8678
付	-8679
仪	-8680
价	-8681
众	-8682
伞	-8683
伟	-8684
伯	-8685
侨	-8686
促	-8687
倍	-8688
候	-8689
倩	-8690
储	-8691
兼	-8692
写	-8693
凤	-8694
刀	-8695
刘	-8696
刚	-8697
判	-8698
券	-8699
助	-8700
努	-8701
华	-8702
卓	-8703
南	-8704
友	-8705
古	-8706
台	-8707
司	-8708
叼	-8709
吃	-8710
吐	-8711
吩	-8712
吴	-8713
呕	-8714
咯	-8715
哇	-8716
喜	-8717
喝	-8718
団	-8719
囧	-8720
国	-8721
土	-8722
坡	-8723
培	-8724
境	-8725
墙	-8726
士	-8727
够	-8728
太	-8729
夫	-8730
夸	-8731
奇	-8732
奥	-8733
妆	-8734
姑	-8735
姓	-8736
委	-8737
嫁	-8738
宏	-8739
宗	-8740
尔	-8741
尝	-8742
岣	-8743
峙	-8744
己	-8745
帽	-8746
序	-8747
庙	-8748
座	-8749
庭	-8750
廇	-8751
忆	-8752
忌	-8753
恒	-8754
恻	-8755
您	-8756
憎	-8757
扣	-8758
抵	-8759
拆	-8760
拔	-8761
拟	-8762
拢	-8763
择	-8764
拴	-8765
挑	-8766
挨	-8767
捷	-8768
措	-8769
揭	-8770
搜	-8771
摩	-8772
操	-8773
擦	-8774
敏	-8775
斌	-8776
映	-8777
晖	-8778
晟	-8779
曩	-8780
朗	-8781
朵	-8782
杰	-8783
析	-8784
某	-8785
梯	-8786
梳	-8787
楼	-8788
武	-8789
氦	-8790
氩	-8791
永	-8792
汗	-8793
洪	-8794
派	-8795
涛	-8796
渣	-8797
溜	-8798
滚	-8799
滴	-8800
濑	-8801
焦	-8802
然	-8803
熊	-8804
牛	-8805
犹	-8806
玉	-8807
玲	-8808
璧	-8809
痣	-8810
痹	-8811
瘦	-8812
瘫	-8813
百	-8814
盾	-8815
省	-8816
眩	-8817
睥	-8818
瞙	-8819
矛	-8820
砌	-8821
础	-8822
祝	-8823
租	-8824
竖	-8825
章	-8826
笔	-8827
簧	-8828
簿	-8829
繁	-8830
绒	-8831
络	-8832
绳	-8833
编	-8834
缴	-8835
翕	-8836
耐	-8837
般	-8838
芒	-8839
苑	-8840
茄	-8841
营	-8842
葱	-8843
蔓	-8844
蚕	-8845
蛆	-8846
蝶	-8847
袋	-8848
襞	-8849
说	-8850
豆	-8851
败	-8852
账	-8853
购	-8854
贾	-8855
赛	-8856
跑	-8857
蹙	-8858
轨	-8859
辉	-8860
辑	-8861
辖	-8862
迅	-8863
遇	-8864
邓	-8865
邠	-8866
邵	-8867
酥	-8868
钰	-8869
铅	-8870
铬	-8871
销	-8872
锋	-8873
镀	-8874
防	-8875
阿	-8876
陪	-8877
雌	-8878
露	-8879
鞥	-8880
须	-8881
顾	-8882
颠	-8883
